{
  "version": "1.0",
  "truncation": null,
  "padding": null,
  "added_tokens": [
    {
      "id": 0,
      "content": "<unk>",
      "single_word": false,
      "lstrip": false,
      "rstrip": false,
      "normalized": false,
      "special": true
    },
    {
      "id": 1,
      "content": "<s>",
      "single_word": false,
      "lstrip": false,
      "rstrip": false,
      "normalized": false,
      "special": true
    },
    {
      "id": 2,
      "content": "</s>",
      "single_word": false,
      "lstrip": false,
      "rstrip": false,
      "normalized": false,
      "special": true
    },
    {
      "id": 3,
      "content": "<pad>",
      "single_word": false,
      "lstrip": false,
      "rstrip": false,
      "normalized": false,
      "special": true
    },
    {
      "id": 4,
      "content": "<mask>",
      "single_word": false,
      "lstrip": false,
      "rstrip": false,
      "normalized": false,
      "special": true
    }
  ],
  "normalizer": null,
  "pre_tokenizer": {
    "type": "Whitespace"
  },
  "post_processor": null,
  "decoder": null,
  "model": {
    "type": "BPE",
    "dropout": null,
    "unk_token": "<unk>",
    "continuing_subword_prefix": null,
    "end_of_word_suffix": null,
    "fuse_unk": false,
    "byte_fallback": false,
    "vocab": {
      "<unk>": 0,
      "<s>": 1,
      "</s>": 2,
      "<pad>": 3,
      "<mask>": 4,
      "0": 5,
      "1": 6,
      "2": 7,
      "3": 8,
      "4": 9,
      "5": 10,
      "6": 11,
      "7": 12,
      "8": 13,
      "9": 14,
      "A": 15,
      "B": 16,
      "C": 17,
      "D": 18,
      "E": 19,
      "F": 20,
      "G": 21,
      "H": 22,
      "I": 23,
      "J": 24,
      "K": 25,
      "L": 26,
      "M": 27,
      "N": 28,
      "O": 29,
      "P": 30,
      "Q": 31,
      "R": 32,
      "S": 33,
      "T": 34,
      "U": 35,
      "V": 36,
      "W": 37,
      "X": 38,
      "Y": 39,
      "Z": 40,
      "a": 41,
      "b": 42,
      "c": 43,
      "d": 44,
      "e": 45,
      "f": 46,
      "g": 47,
      "h": 48,
      "i": 49,
      "j": 50,
      "k": 51,
      "l": 52,
      "m": 53,
      "n": 54,
      "o": 55,
      "p": 56,
      "q": 57,
      "r": 58,
      "s": 59,
      "t": 60,
      "u": 61,
      "v": 62,
      "w": 63,
      "x": 64,
      "y": 65,
      "z": 66,
      "¡": 67,
      "£": 68,
      "¥": 69,
      "§": 70,
      "¨": 71,
      "©": 72,
      "ª": 73,
      "«": 74,
      "¬": 75,
      "­": 76,
      "®": 77,
      "¯": 78,
      "°": 79,
      "±": 80,
      "²": 81,
      "³": 82,
      "´": 83,
      "µ": 84,
      "·": 85,
      "¸": 86,
      "¹": 87,
      "º": 88,
      "»": 89,
      "¼": 90,
      "½": 91,
      "¾": 92,
      "¿": 93,
      "À": 94,
      "Á": 95,
      "Â": 96,
      "Ä": 97,
      "Å": 98,
      "Æ": 99,
      "Ç": 100,
      "È": 101,
      "É": 102,
      "Ë": 103,
      "Í": 104,
      "Î": 105,
      "Ð": 106,
      "Ñ": 107,
      "Ó": 108,
      "Ô": 109,
      "Õ": 110,
      "Ö": 111,
      "×": 112,
      "Ø": 113,
      "Ú": 114,
      "Ü": 115,
      "Þ": 116,
      "ß": 117,
      "à": 118,
      "á": 119,
      "â": 120,
      "ã": 121,
      "ä": 122,
      "å": 123,
      "æ": 124,
      "ç": 125,
      "è": 126,
      "é": 127,
      "ê": 128,
      "ë": 129,
      "ì": 130,
      "í": 131,
      "î": 132,
      "ï": 133,
      "ð": 134,
      "ñ": 135,
      "ò": 136,
      "ó": 137,
      "ô": 138,
      "õ": 139,
      "ö": 140,
      "÷": 141,
      "ø": 142,
      "ù": 143,
      "ú": 144,
      "û": 145,
      "ü": 146,
      "ý": 147,
      "þ": 148,
      "ÿ": 149,
      "Ā": 150,
      "ā": 151,
      "ă": 152,
      "Ą": 153,
      "ą": 154,
      "Ć": 155,
      "ć": 156,
      "ĉ": 157,
      "Č": 158,
      "č": 159,
      "Ď": 160,
      "ď": 161,
      "Đ": 162,
      "đ": 163,
      "ē": 164,
      "ė": 165,
      "ę": 166,
      "ě": 167,
      "ĝ": 168,
      "ğ": 169,
      "ġ": 170,
      "Ģ": 171,
      "Ħ": 172,
      "ħ": 173,
      "ī": 174,
      "Į": 175,
      "İ": 176,
      "ı": 177,
      "ķ": 178,
      "Ľ": 179,
      "ľ": 180,
      "Ł": 181,
      "ł": 182,
      "ń": 183,
      "ņ": 184,
      "ň": 185,
      "Ō": 186,
      "ō": 187,
      "Ő": 188,
      "ő": 189,
      "Œ": 190,
      "œ": 191,
      "Ř": 192,
      "ř": 193,
      "Ś": 194,
      "ś": 195,
      "ŝ": 196,
      "Ş": 197,
      "ş": 198,
      "Š": 199,
      "š": 200,
      "Ţ": 201,
      "ţ": 202,
      "ť": 203,
      "ũ": 204,
      "ū": 205,
      "ů": 206,
      "ű": 207,
      "ų": 208,
      "ŵ": 209,
      "ź": 210,
      "Ż": 211,
      "ż": 212,
      "Ž": 213,
      "ž": 214,
      "Ǝ": 215,
      "ƒ": 216,
      "ư": 217,
      "ǀ": 218,
      "ǎ": 219,
      "ǔ": 220,
      "ș": 221,
      "Ț": 222,
      "ț": 223,
      "ɑ": 224,
      "ɔ": 225,
      "ə": 226,
      "ɛ": 227,
      "ɡ": 228,
      "ɣ": 229,
      "ɨ": 230,
      "ɪ": 231,
      "ɲ": 232,
      "ɾ": 233,
      "ʻ": 234,
      "ʼ": 235,
      "ʿ": 236,
      "ˈ": 237,
      "ː": 238,
      "ˑ": 239,
      "˘": 240,
      "˙": 241,
      "˚": 242,
      "̀": 243,
      "́": 244,
      "̃": 245,
      "̇": 246,
      "̈": 247,
      "̞": 248,
      "̪": 249,
      "̯": 250,
      "̰": 251,
      "ͺ": 252,
      ";": 253,
      "΄": 254,
      "΅": 255,
      "Ά": 256,
      "Έ": 257,
      "Ή": 258,
      "Ί": 259,
      "Ό": 260,
      "Ύ": 261,
      "Ώ": 262,
      "ΐ": 263,
      "Α": 264,
      "Β": 265,
      "Γ": 266,
      "Δ": 267,
      "Ε": 268,
      "Ζ": 269,
      "Η": 270,
      "Θ": 271,
      "Ι": 272,
      "Κ": 273,
      "Λ": 274,
      "Μ": 275,
      "Ν": 276,
      "Ξ": 277,
      "Ο": 278,
      "Π": 279,
      "Ρ": 280,
      "Σ": 281,
      "Τ": 282,
      "Υ": 283,
      "Φ": 284,
      "Χ": 285,
      "Ψ": 286,
      "Ω": 287,
      "Ϊ": 288,
      "Ϋ": 289,
      "ά": 290,
      "έ": 291,
      "ή": 292,
      "ί": 293,
      "ΰ": 294,
      "α": 295,
      "β": 296,
      "γ": 297,
      "δ": 298,
      "ε": 299,
      "ζ": 300,
      "η": 301,
      "θ": 302,
      "ι": 303,
      "κ": 304,
      "λ": 305,
      "μ": 306,
      "ν": 307,
      "ξ": 308,
      "ο": 309,
      "π": 310,
      "ρ": 311,
      "ς": 312,
      "σ": 313,
      "τ": 314,
      "υ": 315,
      "φ": 316,
      "χ": 317,
      "ψ": 318,
      "ω": 319,
      "ϊ": 320,
      "ϋ": 321,
      "ό": 322,
      "ύ": 323,
      "ώ": 324,
      "І": 325,
      "Ј": 326,
      "Љ": 327,
      "А": 328,
      "Б": 329,
      "В": 330,
      "Г": 331,
      "Д": 332,
      "Е": 333,
      "Ж": 334,
      "З": 335,
      "И": 336,
      "Й": 337,
      "К": 338,
      "Л": 339,
      "М": 340,
      "Н": 341,
      "О": 342,
      "П": 343,
      "Р": 344,
      "С": 345,
      "Т": 346,
      "У": 347,
      "Ф": 348,
      "Х": 349,
      "Ц": 350,
      "Ч": 351,
      "Ш": 352,
      "Э": 353,
      "Ю": 354,
      "Я": 355,
      "а": 356,
      "б": 357,
      "в": 358,
      "г": 359,
      "д": 360,
      "е": 361,
      "ж": 362,
      "з": 363,
      "и": 364,
      "й": 365,
      "к": 366,
      "л": 367,
      "м": 368,
      "н": 369,
      "о": 370,
      "п": 371,
      "р": 372,
      "с": 373,
      "т": 374,
      "у": 375,
      "ф": 376,
      "х": 377,
      "ц": 378,
      "ч": 379,
      "ш": 380,
      "щ": 381,
      "ъ": 382,
      "ы": 383,
      "ь": 384,
      "э": 385,
      "ю": 386,
      "я": 387,
      "ё": 388,
      "ђ": 389,
      "і": 390,
      "ї": 391,
      "ј": 392,
      "љ": 393,
      "ћ": 394,
      "Қ": 395,
      "қ": 396,
      "ҳ": 397,
      "Ҿ": 398,
      "Ә": 399,
      "ә": 400,
      "ӣ": 401,
      "ө": 402,
      "Բ": 403,
      "Գ": 404,
      "Դ": 405,
      "Ե": 406,
      "Ժ": 407,
      "Ի": 408,
      "Խ": 409,
      "Ծ": 410,
      "Հ": 411,
      "Ճ": 412,
      "Մ": 413,
      "Պ": 414,
      "Ջ": 415,
      "Ռ": 416,
      "Ս": 417,
      "Վ": 418,
      "ա": 419,
      "գ": 420,
      "դ": 421,
      "ե": 422,
      "ը": 423,
      "թ": 424,
      "ի": 425,
      "լ": 426,
      "խ": 427,
      "կ": 428,
      "ղ": 429,
      "մ": 430,
      "յ": 431,
      "ն": 432,
      "շ": 433,
      "ո": 434,
      "չ": 435,
      "ս": 436,
      "վ": 437,
      "տ": 438,
      "ր": 439,
      "ց": 440,
      "ւ": 441,
      "փ": 442,
      "ք": 443,
      "և": 444,
      "א": 445,
      "ב": 446,
      "ג": 447,
      "ד": 448,
      "ה": 449,
      "ו": 450,
      "ז": 451,
      "ח": 452,
      "ט": 453,
      "י": 454,
      "כ": 455,
      "ל": 456,
      "ם": 457,
      "מ": 458,
      "ן": 459,
      "נ": 460,
      "ס": 461,
      "ע": 462,
      "פ": 463,
      "צ": 464,
      "ק": 465,
      "ר": 466,
      "ש": 467,
      "ת": 468,
      "،": 469,
      "؟": 470,
      "ء": 471,
      "آ": 472,
      "أ": 473,
      "ؤ": 474,
      "إ": 475,
      "ئ": 476,
      "ا": 477,
      "ب": 478,
      "ة": 479,
      "ت": 480,
      "ث": 481,
      "ج": 482,
      "ح": 483,
      "خ": 484,
      "د": 485,
      "ذ": 486,
      "ر": 487,
      "ز": 488,
      "س": 489,
      "ش": 490,
      "ص": 491,
      "ض": 492,
      "ط": 493,
      "ظ": 494,
      "ع": 495,
      "غ": 496,
      "ـ": 497,
      "ف": 498,
      "ق": 499,
      "ك": 500,
      "ل": 501,
      "م": 502,
      "ن": 503,
      "ه": 504,
      "و": 505,
      "ى": 506,
      "ي": 507,
      "ً": 508,
      "ٌ": 509,
      "ٍ": 510,
      "ُ": 511,
      "ّ": 512,
      "ٹ": 513,
      "ک": 514,
      "گ": 515,
      "ں": 516,
      "ہ": 517,
      "ی": 518,
      "۞": 519,
      "ं": 520,
      "अ": 521,
      "आ": 522,
      "इ": 523,
      "ई": 524,
      "उ": 525,
      "ए": 526,
      "क": 527,
      "ग": 528,
      "च": 529,
      "छ": 530,
      "ज": 531,
      "ञ": 532,
      "ट": 533,
      "ड": 534,
      "त": 535,
      "थ": 536,
      "द": 537,
      "ध": 538,
      "न": 539,
      "प": 540,
      "फ": 541,
      "ब": 542,
      "भ": 543,
      "म": 544,
      "य": 545,
      "र": 546,
      "ल": 547,
      "व": 548,
      "श": 549,
      "ष": 550,
      "स": 551,
      "ह": 552,
      "ा": 553,
      "ि": 554,
      "ी": 555,
      "ु": 556,
      "ू": 557,
      "ृ": 558,
      "े": 559,
      "ै": 560,
      "ो": 561,
      "ौ": 562,
      "्": 563,
      "ச": 564,
      "த": 565,
      "ன": 566,
      "ப": 567,
      "ம": 568,
      "ர": 569,
      "ற": 570,
      "ல": 571,
      "ா": 572,
      "ி": 573,
      "ே": 574,
      "ை": 575,
      "்": 576,
      "ം": 577,
      "ക": 578,
      "ജ": 579,
      "ര": 580,
      "സ": 581,
      "ഹ": 582,
      "ീ": 583,
      "ත": 584,
      "න": 585,
      "ප": 586,
      "ම": 587,
      "ර": 588,
      "ල": 589,
      "ස": 590,
      "්": 591,
      "ා": 592,
      "ි": 593,
      "ේ": 594,
      "ෛ": 595,
      "จ": 596,
      "ต": 597,
      "ถ": 598,
      "น": 599,
      "พ": 600,
      "ร": 601,
      "ล": 602,
      "ส": 603,
      "อ": 604,
      "า": 605,
      "ิ": 606,
      "ี": 607,
      "ุ": 608,
      "โ": 609,
      "์": 610,
      "་": 611,
      "།": 612,
      "ཀ": 613,
      "ཁ": 614,
      "ག": 615,
      "ང": 616,
      "ཅ": 617,
      "ཆ": 618,
      "ཉ": 619,
      "ད": 620,
      "ན": 621,
      "པ": 622,
      "ཕ": 623,
      "བ": 624,
      "མ": 625,
      "ཙ": 626,
      "ཞ": 627,
      "འ": 628,
      "ར": 629,
      "ལ": 630,
      "ཤ": 631,
      "ས": 632,
      "ི": 633,
      "ུ": 634,
      "ེ": 635,
      "ོ": 636,
      "ྐ": 637,
      "ྒ": 638,
      "ྟ": 639,
      "ྱ": 640,
      "ྲ": 641,
      "ህ": 642,
      "ለ": 643,
      "ል": 644,
      "ሔ": 645,
      "ሕ": 646,
      "መ": 647,
      "ም": 648,
      "ረ": 649,
      "ሪ": 650,
      "ራ": 651,
      "ር": 652,
      "ሮ": 653,
      "ሰ": 654,
      "ስ": 655,
      "ሻ": 656,
      "ቅ": 657,
      "በ": 658,
      "ቡ": 659,
      "ባ": 660,
      "ቤ": 661,
      "ብ": 662,
      "ቦ": 663,
      "ተ": 664,
      "ት": 665,
      "ቺ": 666,
      "ች": 667,
      "ነ": 668,
      "ኑ": 669,
      "ና": 670,
      "ን": 671,
      "ኖ": 672,
      "ኛ": 673,
      "አ": 674,
      "ኢ": 675,
      "እ": 676,
      "ኩ": 677,
      "ክ": 678,
      "ዕ": 679,
      "ዝ": 680,
      "የ": 681,
      "ያ": 682,
      "ዮ": 683,
      "ደ": 684,
      "ድ": 685,
      "ጀ": 686,
      "ጋ": 687,
      "ግ": 688,
      "ጠ": 689,
      "ጥ": 690,
      "ጵ": 691,
      "ፀ": 692,
      "ፅ": 693,
      "ፈ": 694,
      "።": 695,
      "ᚼ": 696,
      "ḍ": 697,
      "Ḥ": 698,
      "ḥ": 699,
      "ṅ": 700,
      "ṇ": 701,
      "ṛ": 702,
      "ṣ": 703,
      "ṭ": 704,
      "ẫ": 705,
      "ế": 706,
      "ể": 707,
      "ễ": 708,
      "ệ": 709,
      "ị": 710,
      "ọ": 711,
      "ố": 712,
      "ồ": 713,
      "ớ": 714,
      "ụ": 715,
      "ừ": 716,
      "ữ": 717,
      "ἀ": 718,
      "Ἀ": 719,
      "ἐ": 720,
      "ἑ": 721,
      "ἔ": 722,
      "Ἐ": 723,
      "Ἑ": 724,
      "Ἓ": 725,
      "ἡ": 726,
      "ἢ": 727,
      "ἤ": 728,
      "ἦ": 729,
      "Ἠ": 730,
      "Ἡ": 731,
      "ἰ": 732,
      "ἱ": 733,
      "ἴ": 734,
      "ἶ": 735,
      "Ἰ": 736,
      "Ἱ": 737,
      "ὀ": 738,
      "ὁ": 739,
      "ὅ": 740,
      "Ὁ": 741,
      "ὐ": 742,
      "ὑ": 743,
      "ὔ": 744,
      "ὗ": 745,
      "ὰ": 746,
      "ὲ": 747,
      "ὴ": 748,
      "ὶ": 749,
      "ὸ": 750,
      "ᾳ": 751,
      "ᾶ": 752,
      "᾽": 753,
      "ῃ": 754,
      "ῆ": 755,
      "ῖ": 756,
      "ῥ": 757,
      "ῦ": 758,
      "ῶ": 759,
      "​": 760,
      "‌": 761,
      "‍": 762,
      "‎": 763,
      "‏": 764,
      "‐": 765,
      "–": 766,
      "—": 767,
      "―": 768,
      "‘": 769,
      "’": 770,
      "‛": 771,
      "“": 772,
      "”": 773,
      "„": 774,
      "†": 775,
      "‡": 776,
      "•": 777,
      "…": 778,
      "‪": 779,
      "‫": 780,
      "‬": 781,
      "‰": 782,
      "′": 783,
      "″": 784,
      "€": 785,
      "ℕ": 786,
      "№": 787,
      "™": 788,
      "Ω": 789,
      "⅓": 790,
      "⅔": 791,
      "⅛": 792,
      "↑": 793,
      "→": 794,
      "↔": 795,
      "⇄": 796,
      "∃": 797,
      "∆": 798,
      "∇": 799,
      "∈": 800,
      "∑": 801,
      "−": 802,
      "∙": 803,
      "√": 804,
      "∞": 805,
      "∪": 806,
      "∫": 807,
      "≈": 808,
      "≠": 809,
      "≡": 810,
      "≤": 811,
      "≥": 812,
      "⊖": 813,
      "⊢": 814,
      "⊥": 815,
      "⋅": 816,
      "⋙": 817,
      "⏨": 818,
      "☉": 819,
      "♡": 820,
      "♥": 821,
      "♭": 822,
      "♯": 823,
      "✅": 824,
      "⟶": 825,
      "。": 826,
      "〚": 827,
      "〛": 828,
      "あ": 829,
      "い": 830,
      "う": 831,
      "え": 832,
      "お": 833,
      "か": 834,
      "が": 835,
      "き": 836,
      "ぎ": 837,
      "く": 838,
      "け": 839,
      "こ": 840,
      "さ": 841,
      "し": 842,
      "す": 843,
      "ず": 844,
      "せ": 845,
      "そ": 846,
      "ぞ": 847,
      "た": 848,
      "だ": 849,
      "ち": 850,
      "っ": 851,
      "つ": 852,
      "て": 853,
      "で": 854,
      "と": 855,
      "な": 856,
      "に": 857,
      "の": 858,
      "は": 859,
      "ば": 860,
      "ひ": 861,
      "び": 862,
      "ぶ": 863,
      "へ": 864,
      "べ": 865,
      "ほ": 866,
      "ぼ": 867,
      "ぽ": 868,
      "ま": 869,
      "め": 870,
      "も": 871,
      "ゃ": 872,
      "や": 873,
      "ゆ": 874,
      "ょ": 875,
      "よ": 876,
      "ら": 877,
      "り": 878,
      "る": 879,
      "れ": 880,
      "ろ": 881,
      "わ": 882,
      "を": 883,
      "ん": 884,
      "ァ": 885,
      "ア": 886,
      "ィ": 887,
      "イ": 888,
      "ウ": 889,
      "ォ": 890,
      "オ": 891,
      "カ": 892,
      "ガ": 893,
      "キ": 894,
      "ギ": 895,
      "ク": 896,
      "グ": 897,
      "ゲ": 898,
      "コ": 899,
      "ゴ": 900,
      "サ": 901,
      "ザ": 902,
      "シ": 903,
      "ジ": 904,
      "ス": 905,
      "ズ": 906,
      "セ": 907,
      "ゼ": 908,
      "ソ": 909,
      "ゾ": 910,
      "タ": 911,
      "ダ": 912,
      "チ": 913,
      "ッ": 914,
      "ツ": 915,
      "テ": 916,
      "デ": 917,
      "ト": 918,
      "ド": 919,
      "ナ": 920,
      "ニ": 921,
      "ハ": 922,
      "バ": 923,
      "パ": 924,
      "ヒ": 925,
      "ビ": 926,
      "ピ": 927,
      "フ": 928,
      "ブ": 929,
      "プ": 930,
      "ベ": 931,
      "ペ": 932,
      "ボ": 933,
      "マ": 934,
      "ミ": 935,
      "ム": 936,
      "メ": 937,
      "モ": 938,
      "ャ": 939,
      "ュ": 940,
      "ョ": 941,
      "ラ": 942,
      "リ": 943,
      "ル": 944,
      "レ": 945,
      "ロ": 946,
      "ワ": 947,
      "ン": 948,
      "ヴ": 949,
      "・": 950,
      "ー": 951,
      "一": 952,
      "三": 953,
      "上": 954,
      "下": 955,
      "世": 956,
      "丘": 957,
      "中": 958,
      "之": 959,
      "乒": 960,
      "乓": 961,
      "了": 962,
      "事": 963,
      "二": 964,
      "五": 965,
      "人": 966,
      "仇": 967,
      "仟": 968,
      "令": 969,
      "仪": 970,
      "仮": 971,
      "仲": 972,
      "伍": 973,
      "伝": 974,
      "伽": 975,
      "低": 976,
      "体": 977,
      "佛": 978,
      "佰": 979,
      "例": 980,
      "便": 981,
      "俗": 982,
      "倉": 983,
      "倭": 984,
      "偉": 985,
      "偵": 986,
      "像": 987,
      "億": 988,
      "兄": 989,
      "光": 990,
      "全": 991,
      "兰": 992,
      "其": 993,
      "冒": 994,
      "写": 995,
      "冠": 996,
      "冰": 997,
      "出": 998,
      "分": 999,
      "刑": 1000,
      "初": 1001,
      "別": 1002,
      "利": 1003,
      "前": 1004,
      "力": 1005,
      "勇": 1006,
      "動": 1007,
      "勝": 1008,
      "化": 1009,
      "十": 1010,
      "半": 1011,
      "南": 1012,
      "原": 1013,
      "参": 1014,
      "友": 1015,
      "口": 1016,
      "古": 1017,
      "叫": 1018,
      "叭": 1019,
      "右": 1020,
      "叶": 1021,
      "合": 1022,
      "名": 1023,
      "君": 1024,
      "吠": 1025,
      "吴": 1026,
      "周": 1027,
      "呼": 1028,
      "和": 1029,
      "品": 1030,
      "喇": 1031,
      "嘗": 1032,
      "器": 1033,
      "四": 1034,
      "団": 1035,
      "国": 1036,
      "國": 1037,
      "圓": 1038,
      "在": 1039,
      "地": 1040,
      "城": 1041,
      "塞": 1042,
      "塹": 1043,
      "壕": 1044,
      "士": 1045,
      "壮": 1046,
      "声": 1047,
      "壹": 1048,
      "夢": 1049,
      "大": 1050,
      "天": 1051,
      "太": 1052,
      "失": 1053,
      "如": 1054,
      "始": 1055,
      "子": 1056,
      "字": 1057,
      "孤": 1058,
      "学": 1059,
      "學": 1060,
      "安": 1061,
      "宋": 1062,
      "完": 1063,
      "家": 1064,
      "容": 1065,
      "射": 1066,
      "尊": 1067,
      "小": 1068,
      "少": 1069,
      "履": 1070,
      "岩": 1071,
      "嵐": 1072,
      "市": 1073,
      "帝": 1074,
      "帰": 1075,
      "幕": 1076,
      "平": 1077,
      "年": 1078,
      "府": 1079,
      "度": 1080,
      "廣": 1081,
      "弟": 1082,
      "張": 1083,
      "後": 1084,
      "微": 1085,
      "忍": 1086,
      "忠": 1087,
      "念": 1088,
      "恋": 1089,
      "恐": 1090,
      "恩": 1091,
      "情": 1092,
      "想": 1093,
      "愛": 1094,
      "慈": 1095,
      "慕": 1096,
      "成": 1097,
      "我": 1098,
      "戦": 1099,
      "扉": 1100,
      "手": 1101,
      "扶": 1102,
      "抜": 1103,
      "拼": 1104,
      "持": 1105,
      "捌": 1106,
      "探": 1107,
      "撃": 1108,
      "改": 1109,
      "政": 1110,
      "教": 1111,
      "敬": 1112,
      "敵": 1113,
      "文": 1114,
      "斗": 1115,
      "新": 1116,
      "旅": 1117,
      "日": 1118,
      "明": 1119,
      "星": 1120,
      "春": 1121,
      "昭": 1122,
      "時": 1123,
      "晶": 1124,
      "暗": 1125,
      "書": 1126,
      "月": 1127,
      "有": 1128,
      "木": 1129,
      "未": 1130,
      "本": 1131,
      "机": 1132,
      "村": 1133,
      "来": 1134,
      "東": 1135,
      "柒": 1136,
      "柴": 1137,
      "桑": 1138,
      "棺": 1139,
      "極": 1140,
      "権": 1141,
      "橐": 1142,
      "歌": 1143,
      "正": 1144,
      "歩": 1145,
      "段": 1146,
      "殺": 1147,
      "比": 1148,
      "民": 1149,
      "水": 1150,
      "氷": 1151,
      "永": 1152,
      "汉": 1153,
      "河": 1154,
      "治": 1155,
      "法": 1156,
      "波": 1157,
      "津": 1158,
      "流": 1159,
      "测": 1160,
      "海": 1161,
      "港": 1162,
      "游": 1163,
      "漢": 1164,
      "激": 1165,
      "火": 1166,
      "無": 1167,
      "照": 1168,
      "熱": 1169,
      "燃": 1170,
      "燕": 1171,
      "父": 1172,
      "版": 1173,
      "物": 1174,
      "狂": 1175,
      "猛": 1176,
      "獄": 1177,
      "獅": 1178,
      "玉": 1179,
      "王": 1180,
      "玖": 1181,
      "玫": 1182,
      "珍": 1183,
      "現": 1184,
      "球": 1185,
      "瑰": 1186,
      "生": 1187,
      "男": 1188,
      "界": 1189,
      "病": 1190,
      "症": 1191,
      "発": 1192,
      "白": 1193,
      "的": 1194,
      "相": 1195,
      "省": 1196,
      "真": 1197,
      "眩": 1198,
      "睡": 1199,
      "石": 1200,
      "砍": 1201,
      "砕": 1202,
      "神": 1203,
      "离": 1204,
      "程": 1205,
      "空": 1206,
      "立": 1207,
      "竜": 1208,
      "第": 1209,
      "粉": 1210,
      "粒": 1211,
      "精": 1212,
      "紀": 1213,
      "結": 1214,
      "統": 1215,
      "經": 1216,
      "維": 1217,
      "线": 1218,
      "罽": 1219,
      "義": 1220,
      "者": 1221,
      "聞": 1222,
      "聴": 1223,
      "能": 1224,
      "脘": 1225,
      "自": 1226,
      "至": 1227,
      "舃": 1228,
      "舊": 1229,
      "舞": 1230,
      "色": 1231,
      "花": 1232,
      "芳": 1233,
      "荒": 1234,
      "萬": 1235,
      "葉": 1236,
      "蔭": 1237,
      "薄": 1238,
      "蝶": 1239,
      "血": 1240,
      "行": 1241,
      "術": 1242,
      "裂": 1243,
      "要": 1244,
      "覧": 1245,
      "観": 1246,
      "言": 1247,
      "記": 1248,
      "詞": 1249,
      "語": 1250,
      "説": 1251,
      "誰": 1252,
      "調": 1253,
      "讃": 1254,
      "计": 1255,
      "词": 1256,
      "语": 1257,
      "谱": 1258,
      "資": 1259,
      "賓": 1260,
      "走": 1261,
      "超": 1262,
      "身": 1263,
      "車": 1264,
      "輝": 1265,
      "通": 1266,
      "進": 1267,
      "遂": 1268,
      "道": 1269,
      "達": 1270,
      "遠": 1271,
      "郎": 1272,
      "釈": 1273,
      "里": 1274,
      "鉄": 1275,
      "鋼": 1276,
      "鎌": 1277,
      "鎮": 1278,
      "鏡": 1279,
      "鑑": 1280,
      "钩": 1281,
      "間": 1282,
      "闇": 1283,
      "阳": 1284,
      "険": 1285,
      "陽": 1286,
      "隊": 1287,
      "集": 1288,
      "雪": 1289,
      "雲": 1290,
      "電": 1291,
      "静": 1292,
      "面": 1293,
      "音": 1294,
      "響": 1295,
      "頭": 1296,
      "風": 1297,
      "飛": 1298,
      "食": 1299,
      "餘": 1300,
      "館": 1301,
      "香": 1302,
      "騎": 1303,
      "马": 1304,
      "高": 1305,
      "魂": 1306,
      "鶴": 1307,
      "鷹": 1308,
      "黨": 1309,
      "鼓": 1310,
      "각": 1311,
      "강": 1312,
      "계": 1313,
      "고": 1314,
      "관": 1315,
      "기": 1316,
      "남": 1317,
      "대": 1318,
      "도": 1319,
      "무": 1320,
      "방": 1321,
      "본": 1322,
      "부": 1323,
      "세": 1324,
      "스": 1325,
      "연": 1326,
      "원": 1327,
      "은": 1328,
      "일": 1329,
      "타": 1330,
      "한": 1331,
      "합": 1332,
      "﹣": 1333,
      "ﺣ": 1334,
      "ﺮ": 1335,
      "ﻀ": 1336,
      "﻿": 1337,
      "（": 1338,
      "）": 1339,
      "／": 1340,
      "：": 1341,
      "～": 1342,
      "🇪": 1343,
      "🇬": 1344,
      "🇷": 1345,
      "🇺": 1346,
      "🐟": 1347,
      "😉": 1348,
      "😍": 1349,
      "😷": 1350,
      "🙃": 1351,
      "🤔": 1352,
      "ου": 1353,
      "τη": 1354,
      "αι": 1355,
      "ει": 1356,
      "ικ": 1357,
      "το": 1358,
      "να": 1359,
      "με": 1360,
      "τα": 1361,
      "πο": 1362,
      "ση": 1363,
      "ια": 1364,
      "ρο": 1365,
      "ων": 1366,
      "μα": 1367,
      "εί": 1368,
      "και": 1369,
      "τι": 1370,
      "την": 1371,
      "ία": 1372,
      "τε": 1373,
      "του": 1374,
      "ρα": 1375,
      "αν": 1376,
      "της": 1377,
      "τικ": 1378,
      "ρι": 1379,
      "πα": 1380,
      "κα": 1381,
      "νο": 1382,
      "συ": 1383,
      "εν": 1384,
      "επ": 1385,
      "μέ": 1386,
      "των": 1387,
      "ών": 1388,
      "ού": 1389,
      "προ": 1390,
      "οι": 1391,
      "σε": 1392,
      "για": 1393,
      "που": 1394,
      "ες": 1395,
      "πό": 1396,
      "αυ": 1397,
      "ισ": 1398,
      "ρό": 1399,
      "ρά": 1400,
      "ής": 1401,
      "τό": 1402,
      "πε": 1403,
      "θε": 1404,
      "λο": 1405,
      "ές": 1406,
      "σει": 1407,
      "ευ": 1408,
      "ται": 1409,
      "τά": 1410,
      "δια": 1411,
      "ρω": 1412,
      "σης": 1413,
      "ναι": 1414,
      "τή": 1415,
      "θα": 1416,
      "ρί": 1417,
      "ότι": 1418,
      "ιο": 1419,
      "από": 1420,
      "λη": 1421,
      "τις": 1422,
      "ον": 1423,
      "είναι": 1424,
      "ργ": 1425,
      "ως": 1426,
      "ουν": 1427,
      "λα": 1428,
      "τον": 1429,
      "ουμε": 1430,
      "πολ": 1431,
      "ασ": 1432,
      "ρέ": 1433,
      "φο": 1434,
      "εκ": 1435,
      "μο": 1436,
      "τρο": 1437,
      "αλ": 1438,
      "δι": 1439,
      "ίας": 1440,
      "τους": 1441,
      "πει": 1442,
      "απο": 1443,
      "στην": 1444,
      "ρε": 1445,
      "επι": 1446,
      "ρη": 1447,
      "μό": 1448,
      "στο": 1449,
      "συν": 1450,
      "άλ": 1451,
      "σα": 1452,
      "οπο": 1453,
      "δεν": 1454,
      "μέν": 1455,
      "σεις": 1456,
      "θέ": 1457,
      "εξ": 1458,
      "έχ": 1459,
      "δη": 1460,
      "ρώ": 1461,
      "πι": 1462,
      "στη": 1463,
      "άν": 1464,
      "σχ": 1465,
      "περι": 1466,
      "μη": 1467,
      "ρωπα": 1468,
      "Ευ": 1469,
      "μβ": 1470,
      "λά": 1471,
      "ανα": 1472,
      "εδ": 1473,
      "ϊκ": 1474,
      "ρέπει": 1475,
      "στα": 1476,
      "δικ": 1477,
      "ρωπαϊκ": 1478,
      "νω": 1479,
      "αρ": 1480,
      "τική": 1481,
      "ους": 1482,
      "μια": 1483,
      "τικά": 1484,
      "εια": 1485,
      "πρό": 1486,
      "μά": 1487,
      "αυτό": 1488,
      "σω": 1489,
      "πρέπει": 1490,
      "λογ": 1491,
      "ένα": 1492,
      "σο": 1493,
      "δο": 1494,
      "νη": 1495,
      "γκ": 1496,
      "θεί": 1497,
      "μπο": 1498,
      "κατα": 1499,
      "τροπ": 1500,
      "Επι": 1501,
      "ική": 1502,
      "εται": 1503,
      "ψη": 1504,
      "σι": 1505,
      "υπ": 1506,
      "στ": 1507,
      "τικό": 1508,
      "ματα": 1509,
      "επί": 1510,
      "θη": 1511,
      "ελ": 1512,
      "ώς": 1513,
      "τητα": 1514,
      "ξη": 1515,
      "τος": 1516,
      "κατά": 1517,
      "άρ": 1518,
      "λή": 1519,
      "Επιτροπ": 1520,
      "τελ": 1521,
      "λό": 1522,
      "ίες": 1523,
      "μας": 1524,
      "εργ": 1525,
      "συμ": 1526,
      "ύν": 1527,
      "υπο": 1528,
      "έρ": 1529,
      "νομ": 1530,
      "σκ": 1531,
      "Ευρωπαϊκ": 1532,
      "πολι": 1533,
      "Συ": 1534,
      "πτ": 1535,
      "στε": 1536,
      "ούν": 1537,
      "σουμε": 1538,
      "ίν": 1539,
      "τί": 1540,
      "ρή": 1541,
      "παρα": 1542,
      "κοι": 1543,
      "μετα": 1544,
      "ουλ": 1545,
      "γμα": 1546,
      "δυ": 1547,
      "τέ": 1548,
      "ύρι": 1549,
      "ακ": 1550,
      "σημα": 1551,
      "ρία": 1552,
      "έκ": 1553,
      "ίου": 1554,
      "απ": 1555,
      "εγ": 1556,
      "ολ": 1557,
      "αυτή": 1558,
      "τών": 1559,
      "ταν": 1560,
      "πί": 1561,
      "γο": 1562,
      "ποι": 1563,
      "κε": 1564,
      "Πρό": 1565,
      "σεων": 1566,
      "ικο": 1567,
      "πως": 1568,
      "κυ": 1569,
      "προσ": 1570,
      "ρισ": 1571,
      "ούλ": 1572,
      "στις": 1573,
      "μι": 1574,
      "μού": 1575,
      "ικό": 1576,
      "ικά": 1577,
      "ίο": 1578,
      "καν": 1579,
      "Κοι": 1580,
      "μου": 1581,
      "τες": 1582,
      "γρα": 1583,
      "νοβ": 1584,
      "κά": 1585,
      "φορά": 1586,
      "έχει": 1587,
      "ικής": 1588,
      "ρεί": 1589,
      "ούλιο": 1590,
      "ανά": 1591,
      "Πρόεδ": 1592,
      "εύ": 1593,
      "χει": 1594,
      "Επιτροπή": 1595,
      "πλ": 1596,
      "χα": 1597,
      "ας": 1598,
      "σύ": 1599,
      "πη": 1600,
      "καθ": 1601,
      "τικής": 1602,
      "πρα": 1603,
      "ρες": 1604,
      "χώ": 1605,
      "στό": 1606,
      "όσ": 1607,
      "τού": 1608,
      "σχε": 1609,
      "κρα": 1610,
      "τικές": 1611,
      "τές": 1612,
      "οποία": 1613,
      "κοιν": 1614,
      "πολύ": 1615,
      "αλλά": 1616,
      "20": 1617,
      "ρού": 1618,
      "Ένω": 1619,
      "ματος": 1620,
      "οικο": 1621,
      "σία": 1622,
      "ύριε": 1623,
      "Κοινοβ": 1624,
      "τεί": 1625,
      "αποτελ": 1626,
      "Πρόεδρε": 1627,
      "λι": 1628,
      "πισ": 1629,
      "ίσ": 1630,
      "φων": 1631,
      "ρίζ": 1632,
      "ωση": 1633,
      "ός": 1634,
      "θυ": 1635,
      "βα": 1636,
      "σή": 1637,
      "όλ": 1638,
      "γω": 1639,
      "παρά": 1640,
      "εργασ": 1641,
      "ερ": 1642,
      "τερο": 1643,
      "έκθε": 1644,
      "χή": 1645,
      "σημαν": 1646,
      "ικών": 1647,
      "τεύ": 1648,
      "νέ": 1649,
      "εσ": 1650,
      "ζη": 1651,
      "μία": 1652,
      "τικών": 1653,
      "ίζ": 1654,
      "τηση": 1655,
      "er": 1656,
      "κει": 1657,
      "ονται": 1658,
      "διά": 1659,
      "κρά": 1660,
      "Το": 1661,
      "διο": 1662,
      "λον": 1663,
      "επίσης": 1664,
      "μεγ": 1665,
      "αντι": 1666,
      "στον": 1667,
      "λει": 1668,
      "γή": 1669,
      "τώ": 1670,
      "Αυ": 1671,
      "Συμβ": 1672,
      "ικές": 1673,
      "όν": 1674,
      "θούν": 1675,
      "πραγμα": 1676,
      "καλ": 1677,
      "όπως": 1678,
      "ζή": 1679,
      "μάτων": 1680,
      "θή": 1681,
      "δύ": 1682,
      "έλ": 1683,
      "εφ": 1684,
      "σχετικά": 1685,
      "οικονομ": 1686,
      "δή": 1687,
      "τας": 1688,
      "εις": 1689,
      "ότητα": 1690,
      "έχουν": 1691,
      "χω": 1692,
      "έν": 1693,
      "χρη": 1694,
      "ουλίου": 1695,
      "σουν": 1696,
      "an": 1697,
      "ρώπη": 1698,
      "όμε": 1699,
      "τω": 1700,
      "ρυ": 1701,
      "προς": 1702,
      "τερ": 1703,
      "ευρωπαϊκ": 1704,
      "Ευρώπη": 1705,
      "ρια": 1706,
      "υπάρ": 1707,
      "εθ": 1708,
      "μή": 1709,
      "τερα": 1710,
      "χο": 1711,
      "πτυ": 1712,
      "αφορά": 1713,
      "δυνα": 1714,
      "πλη": 1715,
      "Κύριε": 1716,
      "δα": 1717,
      "στή": 1718,
      "σσ": 1719,
      "σας": 1720,
      "ορισ": 1721,
      "πολογ": 1722,
      "ήθε": 1723,
      "οποίο": 1724,
      "ΕΕ": 1725,
      "δικαι": 1726,
      "γνω": 1727,
      "γη": 1728,
      "μόνο": 1729,
      "άλλ": 1730,
      "φα": 1731,
      "μένη": 1732,
      "νή": 1733,
      "δημο": 1734,
      "κο": 1735,
      "λέ": 1736,
      "ρου": 1737,
      "τυ": 1738,
      "ήθελα": 1739,
      "200": 1740,
      "περί": 1741,
      "εχ": 1742,
      "συμφων": 1743,
      "θηκε": 1744,
      "ούμε": 1745,
      "ασφ": 1746,
      "ρών": 1747,
      "δί": 1748,
      "in": 1749,
      "σια": 1750,
      "έκθεση": 1751,
      "όμ": 1752,
      "βασ": 1753,
      "κι": 1754,
      "Επιτροπής": 1755,
      "μεί": 1756,
      "βά": 1757,
      "ήταν": 1758,
      "ειας": 1759,
      "τερη": 1760,
      "υπό": 1761,
      "σχέ": 1762,
      "on": 1763,
      "19": 1764,
      "προβ": 1765,
      "μένο": 1766,
      "τρό": 1767,
      "μέλη": 1768,
      "Κοινοβούλιο": 1769,
      "δικασ": 1770,
      "ούς": 1771,
      "δει": 1772,
      "μπορεί": 1773,
      "αξ": 1774,
      "ίνει": 1775,
      "μένου": 1776,
      "κράτη": 1777,
      "αρχ": 1778,
      "λω": 1779,
      "ξύ": 1780,
      "ανθ": 1781,
      "συμβ": 1782,
      "ισμού": 1783,
      "λαμβ": 1784,
      "ισχ": 1785,
      "μαστε": 1786,
      "Θα": 1787,
      "σαν": 1788,
      "εμ": 1789,
      "τρα": 1790,
      "16": 1791,
      "φέ": 1792,
      "φέρ": 1793,
      "συγκ": 1794,
      "ar": 1795,
      "λος": 1796,
      "μεταξύ": 1797,
      "πά": 1798,
      "βο": 1799,
      "χεί": 1800,
      "ισμό": 1801,
      "ίη": 1802,
      "Ευρωπαϊκή": 1803,
      "νά": 1804,
      "ρόν": 1805,
      "έργ": 1806,
      "μαι": 1807,
      "τομέ": 1808,
      "ακό": 1809,
      "εθν": 1810,
      "γραμ": 1811,
      "χώρες": 1812,
      "πλα": 1813,
      "μένων": 1814,
      "νον": 1815,
      "άζ": 1816,
      "κοινων": 1817,
      "Προ": 1818,
      "Αυτό": 1819,
      "Ένωση": 1820,
      "σσό": 1821,
      "έγ": 1822,
      "ρων": 1823,
      "μπορού": 1824,
      "ρούν": 1825,
      "Εί": 1826,
      "περισσό": 1827,
      "φυ": 1828,
      "πολιτική": 1829,
      "160": 1830,
      "χι": 1831,
      "Οι": 1832,
      "αγο": 1833,
      "μερα": 1834,
      "σίας": 1835,
      "εφαρ": 1836,
      "πιο": 1837,
      "όσον": 1838,
      "ρος": 1839,
      "χαν": 1840,
      "en": 1841,
      "τής": 1842,
      "ζω": 1843,
      "διαδικασ": 1844,
      "οδη": 1845,
      "ρον": 1846,
      "Ένωσης": 1847,
      "μένα": 1848,
      "Συμβούλιο": 1849,
      "ριο": 1850,
      "κη": 1851,
      "βουλ": 1852,
      "φορ": 1853,
      "τευ": 1854,
      "απα": 1855,
      "πρά": 1856,
      "ταση": 1857,
      "πρώ": 1858,
      "σταση": 1859,
      "στρα": 1860,
      "κάν": 1861,
      "θέμα": 1862,
      "σημαντικό": 1863,
      "δε": 1864,
      "αγ": 1865,
      "μιου": 1866,
      "τρέ": 1867,
      "ριν": 1868,
      "αντα": 1869,
      "μένες": 1870,
      "Επί": 1871,
      "τομέα": 1872,
      "είς": 1873,
      "γεγ": 1874,
      "επικ": 1875,
      "πτυξη": 1876,
      "κλη": 1877,
      "ξε": 1878,
      "πλαίσ": 1879,
      "Ευρωπαϊκής": 1880,
      "γεγον": 1881,
      "καθώς": 1882,
      "κυβ": 1883,
      "επα": 1884,
      "ζητή": 1885,
      "κρί": 1886,
      "μιουργ": 1887,
      "Συν": 1888,
      "φή": 1889,
      "δυνατό": 1890,
      "αποφ": 1891,
      "ψηφ": 1892,
      "ώσεις": 1893,
      "συζή": 1894,
      "γρά": 1895,
      "δημιουργ": 1896,
      "σφ": 1897,
      "λών": 1898,
      "τρόπο": 1899,
      "Δεν": 1900,
      "αυτά": 1901,
      "ψή": 1902,
      "βάλ": 1903,
      "τύ": 1904,
      "εσμα": 1905,
      "λί": 1906,
      "μφ": 1907,
      "ποίη": 1908,
      "τημα": 1909,
      "περιο": 1910,
      "ρίου": 1911,
      "στά": 1912,
      "θεσ": 1913,
      "ικού": 1914,
      "στόσο": 1915,
      "φε": 1916,
      "όμως": 1917,
      "ρκ": 1918,
      "τισ": 1919,
      "or": 1920,
      "σήμερα": 1921,
      "περ": 1922,
      "μει": 1923,
      "νε": 1924,
      "στους": 1925,
      "δρα": 1926,
      "ρίες": 1927,
      "γεν": 1928,
      "οδηγ": 1929,
      "ματο": 1930,
      "σημε": 1931,
      "λάβ": 1932,
      "δύο": 1933,
      "εργασίας": 1934,
      "υπη": 1935,
      "αγορά": 1936,
      "δό": 1937,
      "αυτές": 1938,
      "πρω": 1939,
      "όταν": 1940,
      "Κα": 1941,
      "χουν": 1942,
      "ανάπτυξη": 1943,
      "προστα": 1944,
      "δέ": 1945,
      "πλαίσιο": 1946,
      "al": 1947,
      "es": 1948,
      "έναν": 1949,
      "σκο": 1950,
      "αυτού": 1951,
      "εω": 1952,
      "μετά": 1953,
      "σιμο": 1954,
      "θεω": 1955,
      "επισ": 1956,
      "εγκ": 1957,
      "έχουμε": 1958,
      "νώ": 1959,
      "γι": 1960,
      "μάδ": 1961,
      "μεγά": 1962,
      "ίων": 1963,
      "ώστε": 1964,
      "ρει": 1965,
      "διαί": 1966,
      "Είναι": 1967,
      "ισχύ": 1968,
      "Κοινοβουλίου": 1969,
      "αποτελεί": 1970,
      "ρύ": 1971,
      "μην": 1972,
      "κειται": 1973,
      "τροπολογ": 1974,
      "ος": 1975,
      "αί": 1976,
      "ξει": 1977,
      "μιας": 1978,
      "αντιμε": 1979,
      "τικότητα": 1980,
      "τοι": 1981,
      "οργ": 1982,
      "όχι": 1983,
      "γεγονός": 1984,
      "εκρι": 1985,
      "χώρα": 1986,
      "δρά": 1987,
      "Κυ": 1988,
      "προϋ": 1989,
      "πρόσ": 1990,
      "γυ": 1991,
      "λόγω": 1992,
      "ιδιαί": 1993,
      "υπάρχει": 1994,
      "νες": 1995,
      "χρηματο": 1996,
      "πρόταση": 1997,
      "καλύ": 1998,
      "χρόν": 1999,
      "νομο": 2000,
      "λόγο": 2001,
      "αντί": 2002,
      "τεύω": 2003,
      "χε": 2004,
      "ρους": 2005,
      "εφαρμο": 2006,
      "ικαν": 2007,
      "φό": 2008,
      "συζήτηση": 2009,
      "ενός": 2010,
      "οποίες": 2011,
      "μον": 2012,
      "φι": 2013,
      "χρή": 2014,
      "ανθρώ": 2015,
      "προκει": 2016,
      "ασφάλ": 2017,
      "συγκεκρι": 2018,
      "κατάσταση": 2019,
      "πλέ": 2020,
      "μών": 2021,
      "γής": 2022,
      "λαμβάν": 2023,
      "τως": 2024,
      "συνα": 2025,
      "υση": 2026,
      "Επίτρο": 2027,
      "αυτήν": 2028,
      "κοινο": 2029,
      "οδο": 2030,
      "γνώ": 2031,
      "τούν": 2032,
      "Συμβουλίου": 2033,
      "at": 2034,
      "όλα": 2035,
      "κατο": 2036,
      "πλέον": 2037,
      "τόσο": 2038,
      "μηχαν": 2039,
      "επιχει": 2040,
      "ακόμη": 2041,
      "τώρα": 2042,
      "κό": 2043,
      "Ευρωπαϊκό": 2044,
      "λημα": 2045,
      "επίπε": 2046,
      "μί": 2047,
      "λε": 2048,
      "δεί": 2049,
      "γων": 2050,
      "κρατών": 2051,
      "Για": 2052,
      "βε": 2053,
      "πω": 2054,
      "τικού": 2055,
      "προσω": 2056,
      "νας": 2057,
      "πλή": 2058,
      "τητες": 2059,
      "σαμε": 2060,
      "στι": 2061,
      "εργασία": 2062,
      "κάθε": 2063,
      "στεί": 2064,
      "τρ": 2065,
      "Τα": 2066,
      "θηκαν": 2067,
      "θέση": 2068,
      "κή": 2069,
      "υπηρε": 2070,
      "παι": 2071,
      "νων": 2072,
      "πάν": 2073,
      "λλον": 2074,
      "συνο": 2075,
      "ιών": 2076,
      "he": 2077,
      "στήρι": 2078,
      "μεγαλ": 2079,
      "ήδη": 2080,
      "εδώ": 2081,
      "άδ": 2082,
      "ολου": 2083,
      "λοι": 2084,
      "μείς": 2085,
      "φισ": 2086,
      "εκεί": 2087,
      "πολιτικής": 2088,
      "νό": 2089,
      "ριθ": 2090,
      "γνωρίζ": 2091,
      "φαν": 2092,
      "πολί": 2093,
      "λύ": 2094,
      "στοι": 2095,
      "κύρι": 2096,
      "χρησιμο": 2097,
      "νομοθε": 2098,
      "θει": 2099,
      "ευχα": 2100,
      "ηγ": 2101,
      "πέ": 2102,
      "ωμάτων": 2103,
      "νονται": 2104,
      "κρατ": 2105,
      "μεγαλύ": 2106,
      "ολο": 2107,
      "ορ": 2108,
      "συχ": 2109,
      "Αν": 2110,
      "νση": 2111,
      "έβ": 2112,
      "νης": 2113,
      "όσο": 2114,
      "είας": 2115,
      "τεχ": 2116,
      "ειση": 2117,
      "προκειμένου": 2118,
      "κρι": 2119,
      "ασφαλ": 2120,
      "συνεχ": 2121,
      "ρίς": 2122,
      "is": 2123,
      "θεια": 2124,
      "ρηση": 2125,
      "νει": 2126,
      "ειδικ": 2127,
      "τει": 2128,
      "αιρε": 2129,
      "βελ": 2130,
      "βι": 2131,
      "επίπεδο": 2132,
      "επει": 2133,
      "Πολ": 2134,
      "προσπά": 2135,
      "διότι": 2136,
      "εία": 2137,
      "θύ": 2138,
      "κύριε": 2139,
      "ημε": 2140,
      "θέσεις": 2141,
      "όμαστε": 2142,
      "βιο": 2143,
      "μων": 2144,
      "el": 2145,
      "ro": 2146,
      "περισσότερο": 2147,
      "όλη": 2148,
      "αντιμετω": 2149,
      "μάδα": 2150,
      "απαι": 2151,
      "τός": 2152,
      "θήκη": 2153,
      "Πρέπει": 2154,
      "εμπο": 2155,
      "ανάγκ": 2156,
      "λλα": 2157,
      "σαφ": 2158,
      "Με": 2159,
      "παν": 2160,
      "ότητας": 2161,
      "υποστη": 2162,
      "χρόνια": 2163,
      "Ευρωπαϊκού": 2164,
      "αυτής": 2165,
      "εάν": 2166,
      "Και": 2167,
      "τηγ": 2168,
      "φέρει": 2169,
      "ζήτημα": 2170,
      "διασφ": 2171,
      "μικ": 2172,
      "θεση": 2173,
      "ιδιαίτερα": 2174,
      "χθεί": 2175,
      "ic": 2176,
      "199": 2177,
      "μπορούν": 2178,
      "οντας": 2179,
      "φερ": 2180,
      "ενώ": 2181,
      "γγ": 2182,
      "μπορούμε": 2183,
      "στημα": 2184,
      "αξιο": 2185,
      "ενέργ": 2186,
      "χρησιμοποι": 2187,
      "κών": 2188,
      "μελών": 2189,
      "γραμμα": 2190,
      "σιο": 2191,
      "χά": 2192,
      "it": 2193,
      "συμμε": 2194,
      "χωρίς": 2195,
      "μός": 2196,
      "δικαιώ": 2197,
      "ποίηση": 2198,
      "θρω": 2199,
      "ανο": 2200,
      "διαδικασία": 2201,
      "μένως": 2202,
      "Ωστόσο": 2203,
      "λαν": 2204,
      "αυτόν": 2205,
      "κες": 2206,
      "αριθ": 2207,
      "άπο": 2208,
      "βουλευ": 2209,
      "συγ": 2210,
      "νηση": 2211,
      "μέτρα": 2212,
      "τσι": 2213,
      "ενεργ": 2214,
      "ίνεται": 2215,
      "επο": 2216,
      "προϋπολογ": 2217,
      "κανον": 2218,
      "ρίας": 2219,
      "μμ": 2220,
      "μερ": 2221,
      "τέλ": 2222,
      "φέρον": 2223,
      "χής": 2224,
      "παραγω": 2225,
      "ευτα": 2226,
      "όπου": 2227,
      "τουργ": 2228,
      "Πα": 2229,
      "εδο": 2230,
      "επιχειρή": 2231,
      "ριση": 2232,
      "υπάρχουν": 2233,
      "γραφ": 2234,
      "αποτελεσμα": 2235,
      "πτωση": 2236,
      "παρέ": 2237,
      "επε": 2238,
      "τελευτα": 2239,
      "μοι": 2240,
      "πολίτες": 2241,
      "δώ": 2242,
      "πρόκειται": 2243,
      "μορ": 2244,
      "εξε": 2245,
      "νέα": 2246,
      "ης": 2247,
      "τούμε": 2248,
      "στρατηγ": 2249,
      "ακολου": 2250,
      "κάτι": 2251,
      "όμενο": 2252,
      "βάλλον": 2253,
      "λές": 2254,
      "μαν": 2255,
      "πίζ": 2256,
      "φρά": 2257,
      "κυβέρ": 2258,
      "νού": 2259,
      "μέσω": 2260,
      "Προεδ": 2261,
      "Ελ": 2262,
      "κόσ": 2263,
      "παρου": 2264,
      "γει": 2265,
      "ονό": 2266,
      "περίπτωση": 2267,
      "κάπο": 2268,
      "εωργ": 2269,
      "ίζει": 2270,
      "ωνα": 2271,
      "προτά": 2272,
      "πρόβ": 2273,
      "προβλή": 2274,
      "ψει": 2275,
      "Ευρώπης": 2276,
      "ταξη": 2277,
      "ευση": 2278,
      "στόχο": 2279,
      "πληρο": 2280,
      "οργαν": 2281,
      "δικαιωμάτων": 2282,
      "συμφωνία": 2283,
      "ψηφο": 2284,
      "ανταγων": 2285,
      "δεύ": 2286,
      "λλη": 2287,
      "υπέρ": 2288,
      "ρίσκ": 2289,
      "χές": 2290,
      "διαφο": 2291,
      "λειτουργ": 2292,
      "λεί": 2293,
      "υπόψη": 2294,
      "τησης": 2295,
      "ξεις": 2296,
      "αυτο": 2297,
      "ελευ": 2298,
      "στήριξη": 2299,
      "ενα": 2300,
      "στόχ": 2301,
      "Κυρία": 2302,
      "απασχ": 2303,
      "δειγμα": 2304,
      "μισ": 2305,
      "δικαιώματα": 2306,
      "μπ": 2307,
      "ριστ": 2308,
      "ανθρω": 2309,
      "πρωτο": 2310,
      "ένας": 2311,
      "όδ": 2312,
      "αφ": 2313,
      "στοιχεί": 2314,
      "τερες": 2315,
      "ίσουμε": 2316,
      "αποκ": 2317,
      "αυτών": 2318,
      "10": 2319,
      "γράμ": 2320,
      "τήσω": 2321,
      "as": 2322,
      "στιγ": 2323,
      "ψης": 2324,
      "ρακ": 2325,
      "ol": 2326,
      "φορές": 2327,
      "ψήφισ": 2328,
      "βρίσκ": 2329,
      "Συνθήκη": 2330,
      "παγκ": 2331,
      "ετε": 2332,
      "λυ": 2333,
      "σωτερ": 2334,
      "ανη": 2335,
      "πρόβλημα": 2336,
      "διεξ": 2337,
      "είχε": 2338,
      "φορία": 2339,
      "συμπερι": 2340,
      "ϊόν": 2341,
      "ρυθ": 2342,
      "μέσα": 2343,
      "διασφαλ": 2344,
      "ρωση": 2345,
      "ηλ": 2346,
      "δεδο": 2347,
      "προσωπ": 2348,
      "ευκαι": 2349,
      "επιθυ": 2350,
      "σύν": 2351,
      "προϊόν": 2352,
      "υπε": 2353,
      "παράδειγμα": 2354,
      "κατομμ": 2355,
      "τητας": 2356,
      "πριν": 2357,
      "ήσει": 2358,
      "ch": 2359,
      "σχέση": 2360,
      "μέλλον": 2361,
      "θέματα": 2362,
      "όλες": 2363,
      "κεί": 2364,
      "ίσει": 2365,
      "μάδας": 2366,
      "τροφ": 2367,
      "συνεργασία": 2368,
      "Σε": 2369,
      "κον": 2370,
      "πυ": 2371,
      "λόγ": 2372,
      "αρχές": 2373,
      "μεγάλη": 2374,
      "έπει": 2375,
      "χη": 2376,
      "γίνει": 2377,
      "ιά": 2378,
      "ίδια": 2379,
      "re": 2380,
      "οποι": 2381,
      "ευρώ": 2382,
      "φυσ": 2383,
      "ότητες": 2384,
      "μφωνα": 2385,
      "αλλα": 2386,
      "μηση": 2387,
      "ούνται": 2388,
      "βοή": 2389,
      "κύριοι": 2390,
      "οί": 2391,
      "il": 2392,
      "ωμα": 2393,
      "τοποι": 2394,
      "θούμε": 2395,
      "μενο": 2396,
      "άσεις": 2397,
      "εργα": 2398,
      "ακόμα": 2399,
      "σί": 2400,
      "οικονομική": 2401,
      "εισηγη": 2402,
      "επιτρέ": 2403,
      "υποχ": 2404,
      "ωτερ": 2405,
      "θώ": 2406,
      "εφαρμογή": 2407,
      "χισ": 2408,
      "ρασ": 2409,
      "διαπραγμα": 2410,
      "υπερ": 2411,
      "ποτε": 2412,
      "υγ": 2413,
      "ισχυ": 2414,
      "αποτελέ": 2415,
      "επειδή": 2416,
      "σίες": 2417,
      "ρόλο": 2418,
      "φαση": 2419,
      "κατανα": 2420,
      "βή": 2421,
      "μαζ": 2422,
      "έκθεσης": 2423,
      "τρί": 2424,
      "λεγ": 2425,
      "πιστεύω": 2426,
      "παραί": 2427,
      "πους": 2428,
      "ξουμε": 2429,
      "συνάδ": 2430,
      "αλι": 2431,
      "χρει": 2432,
      "προβλήματα": 2433,
      "τήσεις": 2434,
      "Ανα": 2435,
      "βολ": 2436,
      "ριών": 2437,
      "ισμός": 2438,
      "χρι": 2439,
      "άλλη": 2440,
      "ωσης": 2441,
      "προστασία": 2442,
      "πων": 2443,
      "βάση": 2444,
      "εκφρά": 2445,
      "εξαιρε": 2446,
      "συνάδελ": 2447,
      "διευ": 2448,
      "οποί": 2449,
      "ονόματος": 2450,
      "λώ": 2451,
      "ακρι": 2452,
      "ανάγκη": 2453,
      "κύ": 2454,
      "ηθεί": 2455,
      "βιομηχαν": 2456,
      "πολιτών": 2457,
      "μέχρι": 2458,
      "άγ": 2459,
      "διάρ": 2460,
      "είται": 2461,
      "απαραί": 2462,
      "γό": 2463,
      "προγράμ": 2464,
      "υψη": 2465,
      "ξεκ": 2466,
      "επώς": 2467,
      "εξετά": 2468,
      "Πισ": 2469,
      "γές": 2470,
      "ευρωπαϊκή": 2471,
      "σύνο": 2472,
      "πουργ": 2473,
      "εσωτερ": 2474,
      "όλους": 2475,
      "λάβει": 2476,
      "σύστημα": 2477,
      "πρωτοβουλ": 2478,
      "απε": 2479,
      "πολέ": 2480,
      "ερώ": 2481,
      "δημό": 2482,
      "γεωργ": 2483,
      "κυβερ": 2484,
      "εξέ": 2485,
      "ίνουν": 2486,
      "us": 2487,
      "Δια": 2488,
      "χωρών": 2489,
      "μεσα": 2490,
      "επιτροπ": 2491,
      "άρθ": 2492,
      "απάν": 2493,
      "στιγμή": 2494,
      "μές": 2495,
      "εισ": 2496,
      "γνώμη": 2497,
      "πτώσεις": 2498,
      "καταναλω": 2499,
      "θεσμ": 2500,
      "Επίτροπε": 2501,
      "πρόγραμμα": 2502,
      "προτάσεις": 2503,
      "Πολι": 2504,
      "οσ": 2505,
      "διαφορε": 2506,
      "γύ": 2507,
      "ουσα": 2508,
      "ίνων": 2509,
      "απασχόλη": 2510,
      "είμαστε": 2511,
      "λάχισ": 2512,
      "άλλα": 2513,
      "συνέπει": 2514,
      "ιδι": 2515,
      "έτσι": 2516,
      "πλευ": 2517,
      "μακ": 2518,
      "ίσχ": 2519,
      "ρές": 2520,
      "θηση": 2521,
      "κυρί": 2522,
      "σημαντική": 2523,
      "αναγ": 2524,
      "am": 2525,
      "δεχ": 2526,
      "λία": 2527,
      "τέτο": 2528,
      "Σώ": 2529,
      "παί": 2530,
      "φύ": 2531,
      "διαθέ": 2532,
      "λου": 2533,
      "συζητή": 2534,
      "δεκ": 2535,
      "and": 2536,
      "κανόν": 2537,
      "άποψη": 2538,
      "θέσεων": 2539,
      "προτεί": 2540,
      "ακριβ": 2541,
      "ούτε": 2542,
      "00": 2543,
      "πολλές": 2544,
      "Κατά": 2545,
      "πολλά": 2546,
      "κλή": 2547,
      "πραγματικά": 2548,
      "αρχή": 2549,
      "τήτων": 2550,
      "ρως": 2551,
      "βαθ": 2552,
      "προβλέ": 2553,
      "ενδια": 2554,
      "συστή": 2555,
      "αποτέλ": 2556,
      "περιβάλλον": 2557,
      "κυρίως": 2558,
      "κοινή": 2559,
      "κής": 2560,
      "Νο": 2561,
      "ημέ": 2562,
      "γιατί": 2563,
      "ανθρώπι": 2564,
      "νοντας": 2565,
      "αύ": 2566,
      "ιση": 2567,
      "πάρ": 2568,
      "διαπραγματεύ": 2569,
      "αε": 2570,
      "θμι": 2571,
      "le": 2572,
      "τροπολογίες": 2573,
      "δραστη": 2574,
      "άζεται": 2575,
      "εύθε": 2576,
      "εβ": 2577,
      "σματα": 2578,
      "σημείο": 2579,
      "μεγαλύτερη": 2580,
      "φεί": 2581,
      "ίδιο": 2582,
      "ελευθε": 2583,
      "ορισμένες": 2584,
      "ευσης": 2585,
      "χαρακ": 2586,
      "πρώτη": 2587,
      "λαδή": 2588,
      "πρ": 2589,
      "πράγμα": 2590,
      "εργαζ": 2591,
      "αποτέλεσμα": 2592,
      "τολ": 2593,
      "ur": 2594,
      "τυχ": 2595,
      "ήσουμε": 2596,
      "ήρ": 2597,
      "σταθε": 2598,
      "όλοι": 2599,
      "of": 2600,
      "ληφ": 2601,
      "πόν": 2602,
      "αρκε": 2603,
      "μένοι": 2604,
      "άλλες": 2605,
      "λουμε": 2606,
      "δήποτε": 2607,
      "αποφασ": 2608,
      "ενίσχ": 2609,
      "αύξη": 2610,
      "ψηφοφορία": 2611,
      "μπορέ": 2612,
      "οδηγία": 2613,
      "εκατομμ": 2614,
      "αντικ": 2615,
      "ωθεί": 2616,
      "μεταρ": 2617,
      "δική": 2618,
      "σκευ": 2619,
      "σον": 2620,
      "χρό": 2621,
      "δημοσιο": 2622,
      "ρην": 2623,
      "αγοράς": 2624,
      "κυβέρνηση": 2625,
      "Πιστεύω": 2626,
      "δία": 2627,
      "πληροφο": 2628,
      "δηλαδή": 2629,
      "σημασία": 2630,
      "νος": 2631,
      "Δικ": 2632,
      "δυνατότητα": 2633,
      "απαν": 2634,
      "τομείς": 2635,
      "ζει": 2636,
      "έρευ": 2637,
      "επαν": 2638,
      "ρούμε": 2639,
      "προσπάθει": 2640,
      "σημαίνει": 2641,
      "Αυτή": 2642,
      "δημοκρα": 2643,
      "χρο": 2644,
      "κεια": 2645,
      "ολό": 2646,
      "διεθν": 2647,
      "μβα": 2648,
      "κάνει": 2649,
      "ωστόσο": 2650,
      "σιασ": 2651,
      "ing": 2652,
      "θαν": 2653,
      "παρε": 2654,
      "μέτ": 2655,
      "ασφάλεια": 2656,
      "ελεύθε": 2657,
      "έργο": 2658,
      "et": 2659,
      "προηγ": 2660,
      "τεραι": 2661,
      "σύμφωνα": 2662,
      "ed": 2663,
      "ψε": 2664,
      "εγκρί": 2665,
      "ίνη": 2666,
      "ίνδυ": 2667,
      "Επίτροπο": 2668,
      "θεν": 2669,
      "εκλογ": 2670,
      "ρεύ": 2671,
      "σχεδ": 2672,
      "πρακ": 2673,
      "παγκόσ": 2674,
      "σιών": 2675,
      "αναγκα": 2676,
      "πεί": 2677,
      "κυρίες": 2678,
      "δρο": 2679,
      "δεσ": 2680,
      "προτεραι": 2681,
      "σκε": 2682,
      "ίζω": 2683,
      "νών": 2684,
      "ελέγ": 2685,
      "κόσμο": 2686,
      "λαμβάνει": 2687,
      "ανησυχ": 2688,
      "αιτέ": 2689,
      "νοι": 2690,
      "ικούς": 2691,
      "κρατία": 2692,
      "νους": 2693,
      "ιστά": 2694,
      "αναπτυ": 2695,
      "ion": 2696,
      "ευχαρισ": 2697,
      "μένης": 2698,
      "τότε": 2699,
      "αναφέ": 2700,
      "τροπο": 2701,
      "βαση": 2702,
      "σχέδιο": 2703,
      "χρηματοδό": 2704,
      "Δη": 2705,
      "δικαί": 2706,
      "μορφ": 2707,
      "προσο": 2708,
      "υποχρε": 2709,
      "έλεγ": 2710,
      "αυξ": 2711,
      "μελι": 2712,
      "διάρκεια": 2713,
      "Στην": 2714,
      "στηκε": 2715,
      "βό": 2716,
      "σου": 2717,
      "ρίων": 2718,
      "πρεπε": 2719,
      "πολιτικές": 2720,
      "Εν": 2721,
      "ενισχύ": 2722,
      "φορο": 2723,
      "λοιπόν": 2724,
      "κολ": 2725,
      "χουμε": 2726,
      "ειο": 2727,
      "άλλων": 2728,
      "βαλ": 2729,
      "κάνουμε": 2730,
      "εφαρμό": 2731,
      "υποστηρίζ": 2732,
      "χου": 2733,
      "ύρια": 2734,
      "σες": 2735,
      "ρύθμι": 2736,
      "δημιουργία": 2737,
      "Γι": 2738,
      "ακριβώς": 2739,
      "ρεια": 2740,
      "πίζω": 2741,
      "ίζεται": 2742,
      "ευκαιρία": 2743,
      "Ισ": 2744,
      "ζόμαστε": 2745,
      "έγκ": 2746,
      "τήματα": 2747,
      "λεπ": 2748,
      "καθε": 2749,
      "ολογ": 2750,
      "πίνων": 2751,
      "τηρή": 2752,
      "πιση": 2753,
      "ευχαριστήσω": 2754,
      "επιχειρήσεις": 2755,
      "τικούς": 2756,
      "μέρος": 2757,
      "νολογ": 2758,
      "τια": 2759,
      "Ομάδας": 2760,
      "κρατίας": 2761,
      "κινη": 2762,
      "Από": 2763,
      "καταπολέ": 2764,
      "θά": 2765,
      "όμενη": 2766,
      "βαρ": 2767,
      "ταξ": 2768,
      "ιστο": 2769,
      "έπρεπε": 2770,
      "Ως": 2771,
      "είμαι": 2772,
      "ψηφίσ": 2773,
      "ρωσης": 2774,
      "ευρωπαϊκό": 2775,
      "βουλευτές": 2776,
      "εξωτερ": 2777,
      "προσε": 2778,
      "ουσιασ": 2779,
      "αισ": 2780,
      "βελτι": 2781,
      "προσέγ": 2782,
      "ενέργειας": 2783,
      "μούς": 2784,
      "παρ": 2785,
      "βοη": 2786,
      "απλ": 2787,
      "κυρία": 2788,
      "αφο": 2789,
      "πραγματοποι": 2790,
      "πολιτισ": 2791,
      "διαφ": 2792,
      "πον": 2793,
      "ην": 2794,
      "απαραίτη": 2795,
      "ψεις": 2796,
      "σετε": 2797,
      "αντιμετωπίζ": 2798,
      "παρόν": 2799,
      "μαζί": 2800,
      "Σύ": 2801,
      "υχ": 2802,
      "μπορούσε": 2803,
      "επεν": 2804,
      "st": 2805,
      "γηση": 2806,
      "τροπολογία": 2807,
      "θέλω": 2808,
      "μιο": 2809,
      "προσα": 2810,
      "μφων": 2811,
      "περιοχή": 2812,
      "αξι": 2813,
      "ιδί": 2814,
      "γών": 2815,
      "απόφαση": 2816,
      "μάλ": 2817,
      "ανέ": 2818,
      "εμπορ": 2819,
      "παρο": 2820,
      "έλος": 2821,
      "μες": 2822,
      "δραστηρι": 2823,
      "τεχν": 2824,
      "όλων": 2825,
      "ρησης": 2826,
      "ιστεί": 2827,
      "ac": 2828,
      "γματα": 2829,
      "είτε": 2830,
      "σοβα": 2831,
      "ώσει": 2832,
      "όργ": 2833,
      "βαι": 2834,
      "αύξηση": 2835,
      "χρήση": 2836,
      "φοι": 2837,
      "μοί": 2838,
      "παρουσι": 2839,
      "προσοχή": 2840,
      "ευθύ": 2841,
      "εντ": 2842,
      "τήσει": 2843,
      "πν": 2844,
      "ολοκλη": 2845,
      "δικαίωμα": 2846,
      "περιφερ": 2847,
      "οποίη": 2848,
      "ποσο": 2849,
      "βελτί": 2850,
      "προσέγγι": 2851,
      "ανεξ": 2852,
      "τουν": 2853,
      "τομα": 2854,
      "θήκες": 2855,
      "ριστώ": 2856,
      "μεγάλο": 2857,
      "εξακολου": 2858,
      "ζητήματα": 2859,
      "ερω": 2860,
      "κρίση": 2861,
      "ψήφισμα": 2862,
      "Σώμα": 2863,
      "επανα": 2864,
      "οργάν": 2865,
      "δέσ": 2866,
      "ad": 2867,
      "περιορισ": 2868,
      "ξης": 2869,
      "μεν": 2870,
      "ασφάλειας": 2871,
      "αγω": 2872,
      "όδου": 2873,
      "φορών": 2874,
      "υιο": 2875,
      "ανάπτυξης": 2876,
      "προσπα": 2877,
      "αμφ": 2878,
      "ότερα": 2879,
      "κανείς": 2880,
      "υπήρ": 2881,
      "δημοσιονομ": 2882,
      "κοινοβ": 2883,
      "κράτος": 2884,
      "παρού": 2885,
      "έρχ": 2886,
      "σεβασ": 2887,
      "αποτελούν": 2888,
      "ναί": 2889,
      "δω": 2890,
      "τελευταία": 2891,
      "the": 2892,
      "μέτρων": 2893,
      "πολυ": 2894,
      "Εξ": 2895,
      "καμία": 2896,
      "om": 2897,
      "τεχνολογ": 2898,
      "περίοδο": 2899,
      "χρόνο": 2900,
      "άλλο": 2901,
      "τία": 2902,
      "οπ": 2903,
      "διαχεί": 2904,
      "ταχ": 2905,
      "τέλος": 2906,
      "λαμβά": 2907,
      "Του": 2908,
      "ναν": 2909,
      "Όπως": 2910,
      "οφεί": 2911,
      "καθεστ": 2912,
      "ολόκλη": 2913,
      "ανθρωπίνων": 2914,
      "οδηγίας": 2915,
      "δυνατόν": 2916,
      "στρατηγική": 2917,
      "ροι": 2918,
      "θεμελι": 2919,
      "ρχ": 2920,
      "τούτου": 2921,
      "πραγματικότητα": 2922,
      "τίας": 2923,
      "ξουν": 2924,
      "ιδίως": 2925,
      "αερο": 2926,
      "υπηρεσίες": 2927,
      "Υπάρ": 2928,
      "έως": 2929,
      "οικονομικής": 2930,
      "μείωση": 2931,
      "δρό": 2932,
      "κιν": 2933,
      "Στο": 2934,
      "ΠΑ": 2935,
      "άρθρο": 2936,
      "προϋπολογισμού": 2937,
      "un": 2938,
      "πολιτικών": 2939,
      "δεσμε": 2940,
      "γυναι": 2941,
      "βεβαι": 2942,
      "υλο": 2943,
      "οποίος": 2944,
      "ζουν": 2945,
      "συμβα": 2946,
      "ευρωπαϊκής": 2947,
      "κανόνες": 2948,
      "πλευρά": 2949,
      "Υπο": 2950,
      "γου": 2951,
      "συνεργασίας": 2952,
      "λογο": 2953,
      "έβαι": 2954,
      "γον": 2955,
      "συνεδ": 2956,
      "στοιχεία": 2957,
      "γράφ": 2958,
      "φρα": 2959,
      "κλο": 2960,
      "διεθ": 2961,
      "φί": 2962,
      "Αφ": 2963,
      "Αλ": 2964,
      "διάφο": 2965,
      "πρόοδο": 2966,
      "στασης": 2967,
      "κατάλλη": 2968,
      "γυναί": 2969,
      "Προεδρία": 2970,
      "επαρκ": 2971,
      "ίζουν": 2972,
      "μάδες": 2973,
      "συνέχ": 2974,
      "μάν": 2975,
      "εμπό": 2976,
      "άζονται": 2977,
      "συμμετο": 2978,
      "κατ": 2979,
      "εισα": 2980,
      "προσπάθειες": 2981,
      "ορίζ": 2982,
      "πληθυ": 2983,
      "αυτούς": 2984,
      "χρον": 2985,
      "ηση": 2986,
      "ισα": 2987,
      "σημει": 2988,
      "Ηνω": 2989,
      "μεγάλ": 2990,
      "περιοχές": 2991,
      "πεζ": 2992,
      "οποίοι": 2993,
      "μης": 2994,
      "βλέ": 2995,
      "ενίσχυση": 2996,
      "επιτύ": 2997,
      "κλί": 2998,
      "πάνω": 2999,
      "πληθυσ": 3000,
      "έξ": 3001,
      "θυνση": 3002,
      "σημαντικά": 3003,
      "γγελ": 3004,
      "κεν": 3005,
      "ταυ": 3006,
      "λαβ": 3007,
      "τρια": 3008,
      "είχα": 3009,
      "εξαιρετικά": 3010,
      "μέλος": 3011,
      "σκοπό": 3012,
      "κατέ": 3013,
      "ιστα": 3014,
      "σαφές": 3015,
      "νύ": 3016,
      "συμφέρον": 3017,
      "πιστώ": 3018,
      "ρική": 3019,
      "υποστήριξη": 3020,
      "δεικ": 3021,
      "υσης": 3022,
      "κάποια": 3023,
      "συγχα": 3024,
      "ποιο": 3025,
      "εξασφαλ": 3026,
      "φος": 3027,
      "ραν": 3028,
      "τρομο": 3029,
      "εμείς": 3030,
      "15": 3031,
      "de": 3032,
      "δέλ": 3033,
      "στυχ": 3034,
      "διάταξη": 3035,
      "ποίησης": 3036,
      "νομοθεσία": 3037,
      "καταπολέμηση": 3038,
      "νωση": 3039,
      "δικα": 3040,
      "τήρια": 3041,
      "αιτέρω": 3042,
      "πώς": 3043,
      "άνθρω": 3044,
      "ενια": 3045,
      "ίδι": 3046,
      "ρμο": 3047,
      "λλ": 3048,
      "φυσικά": 3049,
      "συντον": 3050,
      "συνθήκες": 3051,
      "εβδο": 3052,
      "αλλη": 3053,
      "δους": 3054,
      "εμβ": 3055,
      "έγι": 3056,
      "εκατομμύρια": 3057,
      "απολύ": 3058,
      "διεύ": 3059,
      "όμενες": 3060,
      "18": 3061,
      "άσεων": 3062,
      "ομι": 3063,
      "έχω": 3064,
      "νέων": 3065,
      "Δημο": 3066,
      "δών": 3067,
      "τικοί": 3068,
      "πιθαν": 3069,
      "ικός": 3070,
      "προηγούμε": 3071,
      "12": 3072,
      "Τέλος": 3073,
      "βοήθεια": 3074,
      "περαιτέρω": 3075,
      "λις": 3076,
      "βαλλον": 3077,
      "ρεία": 3078,
      "κίνδυ": 3079,
      "Ομάδα": 3080,
      "πρόσφα": 3081,
      "ter": 3082,
      "τυπ": 3083,
      "άζει": 3084,
      "βάσει": 3085,
      "λοί": 3086,
      "λύση": 3087,
      "φορολογ": 3088,
      "ομάδα": 3089,
      "ματική": 3090,
      "τικός": 3091,
      "περιβαλλον": 3092,
      "συζη": 3093,
      "ορισμένα": 3094,
      "δύσκο": 3095,
      "στάσεις": 3096,
      "γα": 3097,
      "Ου": 3098,
      "στυχώς": 3099,
      "νούς": 3100,
      "ιδέ": 3101,
      "δύνα": 3102,
      "Ρω": 3103,
      "συναδέλ": 3104,
      "εγώ": 3105,
      "επενδύ": 3106,
      "ρισης": 3107,
      "όλου": 3108,
      "γραπτ": 3109,
      "ul": 3110,
      "κάποιο": 3111,
      "κές": 3112,
      "πληρω": 3113,
      "ληψη": 3114,
      "διαδικασίας": 3115,
      "γαλ": 3116,
      "χωρή": 3117,
      "δράσης": 3118,
      "προσέγγιση": 3119,
      "ρλαν": 3120,
      "πλο": 3121,
      "αρμο": 3122,
      "θήσει": 3123,
      "στούν": 3124,
      "λιγό": 3125,
      "ισορ": 3126,
      "εκπο": 3127,
      "βελτίωση": 3128,
      "δίκ": 3129,
      "ενεργεια": 3130,
      "ώσεων": 3131,
      "ανταγωνισ": 3132,
      "ζεται": 3133,
      "νέες": 3134,
      "απλώς": 3135,
      "Λισα": 3136,
      "ρινή": 3137,
      "φαίνεται": 3138,
      "EN": 3139,
      "ισμών": 3140,
      "επίτευ": 3141,
      "βαί": 3142,
      "συχνά": 3143,
      "τήρηση": 3144,
      "θέλουμε": 3145,
      "δες": 3146,
      "βρίσκεται": 3147,
      "διεύρυ": 3148,
      "μελλον": 3149,
      "έναντι": 3150,
      "προστασίας": 3151,
      "σκεψη": 3152,
      "ποσ": 3153,
      "γίνεται": 3154,
      "γυναικών": 3155,
      "βαθμό": 3156,
      "τίθε": 3157,
      "βία": 3158,
      "συμβάλ": 3159,
      "στόχους": 3160,
      "θεώ": 3161,
      "μένους": 3162,
      "Λισαβό": 3163,
      "συγκεκριμένα": 3164,
      "λόγους": 3165,
      "Όσον": 3166,
      "ρειαζόμαστε": 3167,
      "ζονται": 3168,
      "παίδ": 3169,
      "απορ": 3170,
      "Θε": 3171,
      "μίας": 3172,
      "os": 3173,
      "πλήρως": 3174,
      "Εάν": 3175,
      "Πρόκειται": 3176,
      "ir": 3177,
      "υπηρεσιών": 3178,
      "κυβερνή": 3179,
      "συνολ": 3180,
      "καταρ": 3181,
      "χρειάζεται": 3182,
      "δίκαι": 3183,
      "περιφερεια": 3184,
      "κατασ": 3185,
      "γραπτώς": 3186,
      "κανονισμού": 3187,
      "κυκλο": 3188,
      "χρηματοδο": 3189,
      "καλά": 3190,
      "κοινωνική": 3191,
      "λωση": 3192,
      "ψηφίσματος": 3193,
      "πάντα": 3194,
      "Θέλ": 3195,
      "μέρους": 3196,
      "τρι": 3197,
      "θω": 3198,
      "δέχ": 3199,
      "σειρά": 3200,
      "θυν": 3201,
      "άλι": 3202,
      "κατη": 3203,
      "νι": 3204,
      "ρυθμί": 3205,
      "στηρίζ": 3206,
      "Δι": 3207,
      "αποτελέσματα": 3208,
      "θεωρώ": 3209,
      "προσπάθεια": 3210,
      "δράση": 3211,
      "ρύθμιση": 3212,
      "ώρα": 3213,
      "επιτυχ": 3214,
      "συνεπώς": 3215,
      "ισορρο": 3216,
      "Κο": 3217,
      "έλεγχο": 3218,
      "θύν": 3219,
      "αντιμετωπί": 3220,
      "σημασίας": 3221,
      "βέβαι": 3222,
      "γυναίκες": 3223,
      "ίσω": 3224,
      "Πε": 3225,
      "προώ": 3226,
      "κληση": 3227,
      "αυτου": 3228,
      "Τουρκ": 3229,
      "γέν": 3230,
      "βλη": 3231,
      "ερμαν": 3232,
      "εκπαίδ": 3233,
      "έλλει": 3234,
      "καλή": 3235,
      "πού": 3236,
      "συμβι": 3237,
      "πιστω": 3238,
      "ξεκι": 3239,
      "πρόσβαση": 3240,
      "θειας": 3241,
      "θαρ": 3242,
      "αφορούν": 3243,
      "λων": 3244,
      "Συνθήκης": 3245,
      "ri": 3246,
      "μέσ": 3247,
      "κατεύ": 3248,
      "προκαλ": 3249,
      "δυναμ": 3250,
      "περιπτώσεις": 3251,
      "μεσο": 3252,
      "μένος": 3253,
      "υποστηρί": 3254,
      "σχέσεις": 3255,
      "Εκ": 3256,
      "λόγος": 3257,
      "11": 3258,
      "κείμενο": 3259,
      "φέρουν": 3260,
      "Επιπλέον": 3261,
      "Κοιν": 3262,
      "κατηγο": 3263,
      "επομένως": 3264,
      "αυτός": 3265,
      "ματί": 3266,
      "απολύτως": 3267,
      "απαιτεί": 3268,
      "προγράμματα": 3269,
      "2000": 3270,
      "ρήσια": 3271,
      "είχαν": 3272,
      "διαπραγματεύσεις": 3273,
      "ρεται": 3274,
      "μάς": 3275,
      "συνάδελφοι": 3276,
      "μόλις": 3277,
      "φους": 3278,
      "ιλ": 3279,
      "προσώ": 3280,
      "χώρας": 3281,
      "συνέπεια": 3282,
      "ίσουν": 3283,
      "πτει": 3284,
      "άς": 3285,
      "ίσως": 3286,
      "τασης": 3287,
      "επιτευ": 3288,
      "μος": 3289,
      "Ευρωπα": 3290,
      "Λισαβόνας": 3291,
      "απασχόλησης": 3292,
      "αντιμετώ": 3293,
      "διατά": 3294,
      "κατεύθυνση": 3295,
      "διαρ": 3296,
      "παρό": 3297,
      "ενημέ": 3298,
      "εξου": 3299,
      "όργανα": 3300,
      "μπορώ": 3301,
      "λάχιστον": 3302,
      "παρούσα": 3303,
      "ρας": 3304,
      "δος": 3305,
      "πιστο": 3306,
      "σαφή": 3307,
      "τοπ": 3308,
      "εκτός": 3309,
      "συμβιβασ": 3310,
      "σύνη": 3311,
      "κοινού": 3312,
      "Κατα": 3313,
      "επιση": 3314,
      "ευρωπα": 3315,
      "διαφάν": 3316,
      "γνωρίζουμε": 3317,
      "τερά": 3318,
      "ot": 3319,
      "αυστη": 3320,
      "ημερήσια": 3321,
      "λαμβανο": 3322,
      "ονο": 3323,
      "ήσουν": 3324,
      "τερον": 3325,
      "ηθούν": 3326,
      "γε": 3327,
      "ετοι": 3328,
      "ευθύνη": 3329,
      "συστήματος": 3330,
      "πόρων": 3331,
      "λόγια": 3332,
      "φά": 3333,
      "δεικνύ": 3334,
      "σημεία": 3335,
      "βήμα": 3336,
      "ψουμε": 3337,
      "ώσι": 3338,
      "επέ": 3339,
      "πλειο": 3340,
      "επιτροπή": 3341,
      "μέλ": 3342,
      "τέτοιο": 3343,
      "σσε": 3344,
      "πλήρη": 3345,
      "σκολ": 3346,
      "πρόθεσ": 3347,
      "συμφωνίας": 3348,
      "ικανοποι": 3349,
      "αποφάσεις": 3350,
      "πλειοψηφ": 3351,
      "ένταξη": 3352,
      "εμπει": 3353,
      "λεισ": 3354,
      "έτος": 3355,
      "πιστεύ": 3356,
      "ανή": 3357,
      "εντός": 3358,
      "13": 3359,
      "προϊόντων": 3360,
      "κάποι": 3361,
      "πρώτο": 3362,
      "τουλάχιστον": 3363,
      "κοί": 3364,
      "κίνη": 3365,
      "Θεω": 3366,
      "νομική": 3367,
      "ύριο": 3368,
      "δεκα": 3369,
      "The": 3370,
      "ώντας": 3371,
      "στρατι": 3372,
      "νου": 3373,
      "άνθρωποι": 3374,
      "προϋπολογισμό": 3375,
      "λισ": 3376,
      "φερε": 3377,
      "Μα": 3378,
      "επιλογ": 3379,
      "τάμε": 3380,
      "σταθερό": 3381,
      "αξιολό": 3382,
      "μακρο": 3383,
      "καινο": 3384,
      "ψουν": 3385,
      "χρηματοδότηση": 3386,
      "φής": 3387,
      "μετανά": 3388,
      "14": 3389,
      "περίπου": 3390,
      "δυνά": 3391,
      "δοξ": 3392,
      "συνεδρία": 3393,
      "ρημα": 3394,
      "πυρην": 3395,
      "Δικαι": 3396,
      "ανθρώπινα": 3397,
      "τακ": 3398,
      "Καν": 3399,
      "σύγκ": 3400,
      "λεγγύ": 3401,
      "λες": 3402,
      "θήσουμε": 3403,
      "λαμβάνουν": 3404,
      "φοράς": 3405,
      "όλο": 3406,
      "δοση": 3407,
      "ήσεις": 3408,
      "προβλέπει": 3409,
      "ut": 3410,
      "μέσο": 3411,
      "ra": 3412,
      "δικαίου": 3413,
      "ουλευ": 3414,
      "ληφθεί": 3415,
      "τέρ": 3416,
      "ιδ": 3417,
      "θεμελιώ": 3418,
      "ταυτό": 3419,
      "κατάρ": 3420,
      "ικη": 3421,
      "πράγματι": 3422,
      "μυ": 3423,
      "εισηγητή": 3424,
      "μής": 3425,
      "ψτε": 3426,
      "Μπο": 3427,
      "μετανάστε": 3428,
      "συμμετοχή": 3429,
      "τικότητας": 3430,
      "επισημάν": 3431,
      "ετα": 3432,
      "πράγματα": 3433,
      "τυπο": 3434,
      "απει": 3435,
      "περισσότερα": 3436,
      "DE": 3437,
      "έρευνα": 3438,
      "ισχύει": 3439,
      "παρουσία": 3440,
      "μένει": 3441,
      "αποκλεισ": 3442,
      "συνέχεια": 3443,
      "νυ": 3444,
      "παλ": 3445,
      "απόλυ": 3446,
      "δείχ": 3447,
      "λάβουμε": 3448,
      "νουν": 3449,
      "εισηγή": 3450,
      "τηρη": 3451,
      "ηλεκ": 3452,
      "άρτη": 3453,
      "περά": 3454,
      "εξελ": 3455,
      "προφαν": 3456,
      "τροποποι": 3457,
      "προγράμματος": 3458,
      "νησης": 3459,
      "τεθεί": 3460,
      "προω": 3461,
      "βρίσκονται": 3462,
      "πρωτοβουλία": 3463,
      "επίτευξη": 3464,
      "χαρακτη": 3465,
      "αναφερ": 3466,
      "απάντηση": 3467,
      "προϊόντα": 3468,
      "ήθηκε": 3469,
      "ματικής": 3470,
      "καθή": 3471,
      "λέγ": 3472,
      "συλ": 3473,
      "θο": 3474,
      "Δυ": 3475,
      "κοινής": 3476,
      "νουμε": 3477,
      "σοβαρ": 3478,
      "τρε": 3479,
      "καθήκον": 3480,
      "ανε": 3481,
      "στόχος": 3482,
      "οικονομία": 3483,
      "είπε": 3484,
      "Πρά": 3485,
      "διώ": 3486,
      "τοί": 3487,
      "πρόεδ": 3488,
      "νέο": 3489,
      "Συνεπώς": 3490,
      "εση": 3491,
      "αρκετά": 3492,
      "μως": 3493,
      "κατάστασης": 3494,
      "ειών": 3495,
      "έδ": 3496,
      "χρονα": 3497,
      "αλιευ": 3498,
      "τιμή": 3499,
      "ιδιω": 3500,
      "εργαζο": 3501,
      "ώνα": 3502,
      "εφαρμογής": 3503,
      "ργαν": 3504,
      "Επίτροπος": 3505,
      "ευχαριστώ": 3506,
      "καταλή": 3507,
      "δημόσια": 3508,
      "αντίθε": 3509,
      "οποίων": 3510,
      "απευ": 3511,
      "δευ": 3512,
      "Λα": 3513,
      "καλύτερη": 3514,
      "ολοκληρω": 3515,
      "αλλαγή": 3516,
      "πεύ": 3517,
      "Πρόεδρος": 3518,
      "Συμφων": 3519,
      "αμε": 3520,
      "πορ": 3521,
      "δύν": 3522,
      "ig": 3523,
      "υπάρξει": 3524,
      "εγγυ": 3525,
      "σύνης": 3526,
      "ΕΚ": 3527,
      "βρε": 3528,
      "προτείνει": 3529,
      "σχεδόν": 3530,
      "πουν": 3531,
      "μβαση": 3532,
      "στρατιω": 3533,
      "στηκαν": 3534,
      "πρόσω": 3535,
      "δοθεί": 3536,
      "ενδιαφέρον": 3537,
      "εκπομπ": 3538,
      "τηθεί": 3539,
      "βάλλ": 3540,
      "μεταφορών": 3541,
      "βί": 3542,
      "ξαν": 3543,
      "κεφ": 3544,
      "τοις": 3545,
      "τήριο": 3546,
      "διασ": 3547,
      "καιρό": 3548,
      "εισαγω": 3549,
      "χρηματοπιστω": 3550,
      "τέτοια": 3551,
      "ers": 3552,
      "εταί": 3553,
      "υπερβολ": 3554,
      "τροφή": 3555,
      "υπογραμ": 3556,
      "ανταπο": 3557,
      "πεδ": 3558,
      "νοια": 3559,
      "ακού": 3560,
      "παιδιά": 3561,
      "σατε": 3562,
      "βολή": 3563,
      "ελάχισ": 3564,
      "όσα": 3565,
      "κού": 3566,
      "ευρωπαϊκών": 3567,
      "ολοκλή": 3568,
      "έντε": 3569,
      "μάλιστα": 3570,
      "ρομαι": 3571,
      "Βασ": 3572,
      "διαρθρω": 3573,
      "μορφή": 3574,
      "δεύτερη": 3575,
      "ειδικά": 3576,
      "κρο": 3577,
      "γησης": 3578,
      "ent": 3579,
      "κλι": 3580,
      "ia": 3581,
      "βλ": 3582,
      "im": 3583,
      "St": 3584,
      "χαρακτή": 3585,
      "είδους": 3586,
      "ρυφής": 3587,
      "Διά": 3588,
      "προχωρή": 3589,
      "ποτέ": 3590,
      "Επο": 3591,
      "ζών": 3592,
      "Σας": 3593,
      "ζουμε": 3594,
      "απασχόληση": 3595,
      "αργ": 3596,
      "κοινωνικής": 3597,
      "καλό": 3598,
      "επιχειρήσεων": 3599,
      "αλληλεγγύ": 3600,
      "βού": 3601,
      "τμή": 3602,
      "Κά": 3603,
      "τολή": 3604,
      "ειες": 3605,
      "ανθρώπων": 3606,
      "επιτευχθεί": 3607,
      "ξεκινή": 3608,
      "δήλωση": 3609,
      "Κί": 3610,
      "ανθρώπους": 3611,
      "σημαντικές": 3612,
      "υπεν": 3613,
      "τρεις": 3614,
      "έγγρα": 3615,
      "σμα": 3616,
      "παραγωγής": 3617,
      "κινδύν": 3618,
      "ολόκληρη": 3619,
      "επιπτώσεις": 3620,
      "μεγαλύτερο": 3621,
      "γί": 3622,
      "αρμοδι": 3623,
      "la": 3624,
      "δά": 3625,
      "ράπεζ": 3626,
      "τησε": 3627,
      "όμενα": 3628,
      "προώθηση": 3629,
      "προοπ": 3630,
      "συνδέ": 3631,
      "ενέργεια": 3632,
      "έγινε": 3633,
      "50": 3634,
      "είο": 3635,
      "πληροφορίες": 3636,
      "μμα": 3637,
      "στος": 3638,
      "Επίσης": 3639,
      "em": 3640,
      "κου": 3641,
      "αθ": 3642,
      "δημόσι": 3643,
      "καθεστώς": 3644,
      "αποφασισ": 3645,
      "διαδρα": 3646,
      "συμφωνίες": 3647,
      "υιοθε": 3648,
      "εμβρίου": 3649,
      "άτομα": 3650,
      "σκέ": 3651,
      "λασ": 3652,
      "Επομένως": 3653,
      "υγεία": 3654,
      "μήνες": 3655,
      "δέσμε": 3656,
      "οποίηση": 3657,
      "εισηγήτρια": 3658,
      "κατάρτι": 3659,
      "θελει": 3660,
      "άλλους": 3661,
      "um": 3662,
      "τητά": 3663,
      "ανακοί": 3664,
      "διαδικασίες": 3665,
      "βιομηχανία": 3666,
      "οινων": 3667,
      "τίθεται": 3668,
      "καθη": 3669,
      "198": 3670,
      "Εθ": 3671,
      "ύθυ": 3672,
      "διακρί": 3673,
      "Θέλω": 3674,
      "iv": 3675,
      "περισσότερες": 3676,
      "ίζονται": 3677,
      "υγείας": 3678,
      "ζωή": 3679,
      "λιγότερο": 3680,
      "ρύν": 3681,
      "μόνον": 3682,
      "επιστη": 3683,
      "όντως": 3684,
      "Περι": 3685,
      "τζ": 3686,
      "πάλι": 3687,
      "χών": 3688,
      "αυξη": 3689,
      "χάς": 3690,
      "Ιρλαν": 3691,
      "Ένα": 3692,
      "φορίας": 3693,
      "παρόντος": 3694,
      "δικό": 3695,
      "άμε": 3696,
      "κάνουν": 3697,
      "κοινό": 3698,
      "δυνατή": 3699,
      "Δεύ": 3700,
      "δώσει": 3701,
      "αρνη": 3702,
      "πλειοψηφία": 3703,
      "τείες": 3704,
      "βεβαί": 3705,
      "προετοι": 3706,
      "γνωση": 3707,
      "επιτυχία": 3708,
      "δίκτυ": 3709,
      "κράτους": 3710,
      "ελευθερία": 3711,
      "δασ": 3712,
      "Γαλ": 3713,
      "λαβε": 3714,
      "πέντε": 3715,
      "ρικής": 3716,
      "φη": 3717,
      "εφόσον": 3718,
      "δεδομένων": 3719,
      "ελεύθερη": 3720,
      "Ρωσία": 3721,
      "καταστή": 3722,
      "πόρους": 3723,
      "συνέπειες": 3724,
      "ρμό": 3725,
      "ικοί": 3726,
      "σπιση": 3727,
      "πτύ": 3728,
      "αρμό": 3729,
      "Στη": 3730,
      "χρειαζόμαστε": 3731,
      "ιδέα": 3732,
      "ειρή": 3733,
      "θος": 3734,
      "ard": 3735,
      "πεται": 3736,
      "βοήθειας": 3737,
      "λαμβάνονται": 3738,
      "ζώ": 3739,
      "δυσκολ": 3740,
      "έγκριση": 3741,
      "μίσω": 3742,
      "τήσουμε": 3743,
      "κερ": 3744,
      "ενθαρ": 3745,
      "ρείς": 3746,
      "εθνικών": 3747,
      "περιλαμβάνει": 3748,
      "ώσουμε": 3749,
      "εμπιστο": 3750,
      "ιν": 3751,
      "γεγονό": 3752,
      "Ταμε": 3753,
      "βάλει": 3754,
      "αναπτύ": 3755,
      "Ισρα": 3756,
      "θεωρεί": 3757,
      "ερώτηση": 3758,
      "εταιρεί": 3759,
      "ιασ": 3760,
      "συμμετ": 3761,
      "εισηγητής": 3762,
      "ισμούς": 3763,
      "προκλή": 3764,
      "κάλ": 3765,
      "Είμαι": 3766,
      "καθυ": 3767,
      "συντά": 3768,
      "εξο": 3769,
      "άσει": 3770,
      "ξεων": 3771,
      "αλή": 3772,
      "κοινωνία": 3773,
      "ταγμα": 3774,
      "ληση": 3775,
      "ίους": 3776,
      "χαμη": 3777,
      "παραγωγή": 3778,
      "περασ": 3779,
      "έκθεσή": 3780,
      "τέτοι": 3781,
      "καταναλωτές": 3782,
      "τέλε": 3783,
      "Ελπίζω": 3784,
      "υποδο": 3785,
      "αποδο": 3786,
      "ag": 3787,
      "επαγγελ": 3788,
      "διαχείριση": 3789,
      "Δεκ": 3790,
      "γίνουν": 3791,
      "Υπουργ": 3792,
      "κατασκευ": 3793,
      "υψηλό": 3794,
      "ροκρο": 3795,
      "ελέγχου": 3796,
      "κυβέρνησης": 3797,
      "αγρο": 3798,
      "εμάς": 3799,
      "δημοκρατία": 3800,
      "ελπίζω": 3801,
      "προτεραιότητα": 3802,
      "λια": 3803,
      "ομο": 3804,
      "εξαι": 3805,
      "ετών": 3806,
      "oc": 3807,
      "Αμερ": 3808,
      "νεται": 3809,
      "νέου": 3810,
      "αιρετί": 3811,
      "χθούν": 3812,
      "κρίσης": 3813,
      "συζητήσεις": 3814,
      "ενσω": 3815,
      "30": 3816,
      "βη": 3817,
      "δουλ": 3818,
      "Mar": 3819,
      "λώσ": 3820,
      "βάρος": 3821,
      "λθ": 3822,
      "βλή": 3823,
      "τήσεων": 3824,
      "τισμού": 3825,
      "Ας": 3826,
      "έμ": 3827,
      "αναφέρ": 3828,
      "ληφθούν": 3829,
      "οικονομικών": 3830,
      "νομοθεσίας": 3831,
      "τώχ": 3832,
      "εξαρ": 3833,
      "κατευ": 3834,
      "διεξα": 3835,
      "συγκεκριμένη": 3836,
      "ερευ": 3837,
      "συμπεριλαμβανο": 3838,
      "Υπάρχουν": 3839,
      "ρευ": 3840,
      "ευρωπαϊκές": 3841,
      "ομάδες": 3842,
      "σταται": 3843,
      "χων": 3844,
      "εξέλι": 3845,
      "χρήματα": 3846,
      "ec": 3847,
      "Νομ": 3848,
      "γλώσ": 3849,
      "πόσο": 3850,
      "πολλοί": 3851,
      "πάρα": 3852,
      "ροκροτήματα": 3853,
      "βίας": 3854,
      "πραγματική": 3855,
      "17": 3856,
      "καθορισ": 3857,
      "ψήφισα": 3858,
      "στού": 3859,
      "ικανοποιη": 3860,
      "μικρό": 3861,
      "επικοινων": 3862,
      "οργάνων": 3863,
      "άλλου": 3864,
      "αυτοί": 3865,
      "βρα": 3866,
      "ευρωπαϊκού": 3867,
      "αναφέρεται": 3868,
      "παρακ": 3869,
      "Γνω": 3870,
      "Πρώ": 3871,
      "εργαζομένων": 3872,
      "φτώχ": 3873,
      "καλύτερα": 3874,
      "διαδραματί": 3875,
      "ποτα": 3876,
      "υπεύθυ": 3877,
      "σταν": 3878,
      "επη": 3879,
      "συμβαίνει": 3880,
      "ενημε": 3881,
      "δεύτερο": 3882,
      "υπενθυ": 3883,
      "ταλ": 3884,
      "μήνυ": 3885,
      "κλίμα": 3886,
      "φόρων": 3887,
      "οδηγή": 3888,
      "καταναλωτών": 3889,
      "Τουρκία": 3890,
      "Σο": 3891,
      "ρφ": 3892,
      "τούτοις": 3893,
      "συζήτησης": 3894,
      "κυβερνη": 3895,
      "ov": 3896,
      "εκλογές": 3897,
      "ation": 3898,
      "διεύρυνση": 3899,
      "δου": 3900,
      "δεδομένου": 3901,
      "όνο": 3902,
      "κατανο": 3903,
      "id": 3904,
      "κίνδυνο": 3905,
      "εξής": 3906,
      "λευ": 3907,
      "ώνει": 3908,
      "πρότασης": 3909,
      "ετή": 3910,
      "ξια": 3911,
      "συγχαρώ": 3912,
      "Κόμ": 3913,
      "κόστος": 3914,
      "παροχή": 3915,
      "Bar": 3916,
      "ήλ": 3917,
      "παρατηρή": 3918,
      "θησαν": 3919,
      "25": 3920,
      "Ασφ": 3921,
      "καταστροφ": 3922,
      "Γνωρίζ": 3923,
      "αποτελέσει": 3924,
      "ζωής": 3925,
      "καλύτερο": 3926,
      "ριζ": 3927,
      "αμφι": 3928,
      "τιμ": 3929,
      "καθα": 3930,
      "2006": 3931,
      "προϋπο": 3932,
      "απαραίτητο": 3933,
      "είχαμε": 3934,
      "λογική": 3935,
      "εμφαν": 3936,
      "Μια": 3937,
      "2009": 3938,
      "ιστούν": 3939,
      "παρελθ": 3940,
      "ηλικ": 3941,
      "Γεν": 3942,
      "παραγωγ": 3943,
      "θεσμικά": 3944,
      "παιδι": 3945,
      "συνεπ": 3946,
      "Θεωρώ": 3947,
      "όρ": 3948,
      "αντιμετώπιση": 3949,
      "υπουργ": 3950,
      "σχολ": 3951,
      "καταστεί": 3952,
      "προσαρμο": 3953,
      "αμοι": 3954,
      "IS": 3955,
      "In": 3956,
      "ιδιαίτερη": 3957,
      "σαφώς": 3958,
      "δεσμεύ": 3959,
      "λόγου": 3960,
      "ξή": 3961,
      "δηλώ": 3962,
      "2007": 3963,
      "Κανον": 3964,
      "απη": 3965,
      "λώσεις": 3966,
      "γνωμο": 3967,
      "μένουν": 3968,
      "έβαλ": 3969,
      "CO": 3970,
      "νομικής": 3971,
      "παρελθόν": 3972,
      "μεγάλες": 3973,
      "μησης": 3974,
      "Αντι": 3975,
      "Τι": 3976,
      "αύριο": 3977,
      "παράγρα": 3978,
      "διάφορες": 3979,
      "υποχρεω": 3980,
      "διατάξεις": 3981,
      "Χει": 3982,
      "οποίους": 3983,
      "προσφέρει": 3984,
      "Σή": 3985,
      "λάβουν": 3986,
      "αποφάσεων": 3987,
      "κολού": 3988,
      "φιλ": 3989,
      "σοβαρά": 3990,
      "Δεύτερον": 3991,
      "λίγο": 3992,
      "αρίου": 3993,
      "ντα": 3994,
      "νομίζω": 3995,
      "έρχεται": 3996,
      "to": 3997,
      "γεί": 3998,
      "πνεύ": 3999,
      "αναθεώ": 4000,
      "δικαιο": 4001,
      "Ch": 4002,
      "σίγου": 4003,
      "ίμων": 4004,
      "χαρακτήρα": 4005,
      "ισορροπ": 4006,
      "Σήμερα": 4007,
      "λουν": 4008,
      "μήνυμα": 4009,
      "σής": 4010,
      "καλλι": 4011,
      "επιδιώ": 4012,
      "τελώς": 4013,
      "στρατηγικής": 4014,
      "αρχών": 4015,
      "δηλώσεις": 4016,
      "διαπραγματεύσεων": 4017,
      "κινή": 4018,
      "περιβάλλοντος": 4019,
      "συναδέλφους": 4020,
      "Δικασ": 4021,
      "παραμε": 4022,
      "έλλειψη": 4023,
      "ούσε": 4024,
      "φαι": 4025,
      "εγκατα": 4026,
      "αυτον": 4027,
      "καινοτο": 4028,
      "ρυθμίσεις": 4029,
      "διοικη": 4030,
      "2005": 4031,
      "2008": 4032,
      "απαρά": 4033,
      "μους": 4034,
      "πολιτικό": 4035,
      "2004": 4036,
      "συγκεκριμένο": 4037,
      "κοινοβουλευ": 4038,
      "εμπόριο": 4039,
      "ασφαλώς": 4040,
      "ευρύ": 4041,
      "τρία": 4042,
      "λειτουργία": 4043,
      "Γερμαν": 4044,
      "δοκι": 4045,
      "Χειροκροτήματα": 4046,
      "for": 4047,
      "αναγνω": 4048,
      "τουμε": 4049,
      "δικά": 4050,
      "ποσοστό": 4051,
      "συστήματα": 4052,
      "σοβαρό": 4053,
      "ριστεί": 4054,
      "ρίζεται": 4055,
      "δράσεις": 4056,
      "ber": 4057,
      "αποτελεσματική": 4058,
      "σημερινή": 4059,
      "Αλλά": 4060,
      "επηρε": 4061,
      "πεν": 4062,
      "υπόλοι": 4063,
      "Μέ": 4064,
      "ταμε": 4065,
      "ρήγο": 4066,
      "νόμ": 4067,
      "διατυπ": 4068,
      "παρακολού": 4069,
      "επιτυ": 4070,
      "απόψεις": 4071,
      "αναγνώ": 4072,
      "διαφάνεια": 4073,
      "μονα": 4074,
      "πληροφοριών": 4075,
      "th": 4076,
      "δισε": 4077,
      "πή": 4078,
      "αίσ": 4079,
      "εκθέσεις": 4080,
      "og": 4081,
      "επιπλέον": 4082,
      "μαρ": 4083,
      "απαράδεκ": 4084,
      "Συνέ": 4085,
      "έννοια": 4086,
      "διεθνή": 4087,
      "ανάμεσα": 4088,
      "τυπα": 4089,
      "κέ": 4090,
      "τελικά": 4091,
      "ανεργ": 4092,
      "Πολιτείες": 4093,
      "μπορέσουμε": 4094,
      "κων": 4095,
      "άγεται": 4096,
      "Αυτός": 4097,
      "ευρωπαϊκά": 4098,
      "αγωγή": 4099,
      "ie": 4100,
      "επιθυμ": 4101,
      "κλά": 4102,
      "εταιρείες": 4103,
      "ρισμό": 4104,
      "Οικο": 4105,
      "φορικά": 4106,
      "ειρην": 4107,
      "μένω": 4108,
      "φασης": 4109,
      "ούτως": 4110,
      "σεως": 4111,
      "εντελώς": 4112,
      "οικογέν": 4113,
      "τρέπει": 4114,
      "αλλαγές": 4115,
      "εθνικές": 4116,
      "τρική": 4117,
      "παρακολου": 4118,
      "τρέχ": 4119,
      "δίκαιο": 4120,
      "ρισκ": 4121,
      "παγκοσ": 4122,
      "νσης": 4123,
      "συμφέροντα": 4124,
      "κυβερνήσεις": 4125,
      "Έχουμε": 4126,
      "τησή": 4127,
      "ow": 4128,
      "2001": 4129,
      "διεξαχθεί": 4130,
      "οποίας": 4131,
      "οικονομικά": 4132,
      "τρόπος": 4133,
      "μεταρρύθμιση": 4134,
      "αξιότι": 4135,
      "ανταγωνισμού": 4136,
      "προεδ": 4137,
      "δυστυχώς": 4138,
      "φυλα": 4139,
      "έτους": 4140,
      "οικονομικές": 4141,
      "ορθ": 4142,
      "2010": 4143,
      "ανάγκες": 4144,
      "ελευθέ": 4145,
      "Ιρά": 4146,
      "πτυχές": 4147,
      "μένουμε": 4148,
      "φερό": 4149,
      "all": 4150,
      "δήλω": 4151,
      "καρ": 4152,
      "γρήγο": 4153,
      "σύνολο": 4154,
      "επισημάνω": 4155,
      "ανου": 4156,
      "An": 4157,
      "χους": 4158,
      "σιν": 4159,
      "ομαι": 4160,
      "Υποθέσεων": 4161,
      "εκπαίδευση": 4162,
      "δύσκολο": 4163,
      "λής": 4164,
      "Ανά": 4165,
      "μόρφ": 4166,
      "Εξωτερ": 4167,
      "Όταν": 4168,
      "ερώτημα": 4169,
      "Όμως": 4170,
      "φρον": 4171,
      "ευρω": 4172,
      "οικονομίας": 4173,
      "επιθυμού": 4174,
      "ab": 4175,
      "πλε": 4176,
      "εξέλιξη": 4177,
      "τροφίμων": 4178,
      "πράξη": 4179,
      "Παγκ": 4180,
      "έβη": 4181,
      "κριτήρια": 4182,
      "od": 4183,
      "άζουν": 4184,
      "χιλι": 4185,
      "υποστήρι": 4186,
      "θέτει": 4187,
      "ημα": 4188,
      "αντικα": 4189,
      "ενημέρωσης": 4190,
      "ανάλ": 4191,
      "έρχονται": 4192,
      "παγκόσμια": 4193,
      "λύσεις": 4194,
      "χορη": 4195,
      "θέσει": 4196,
      "ποιν": 4197,
      "αριθμός": 4198,
      "Βαλ": 4199,
      "έκανε": 4200,
      "τρικής": 4201,
      "εκφράσω": 4202,
      "εθνικό": 4203,
      "τισμό": 4204,
      "δυνατότητες": 4205,
      "ρισμού": 4206,
      "χυ": 4207,
      "διαρκ": 4208,
      "αριθμό": 4209,
      "αφή": 4210,
      "τερων": 4211,
      "εκα": 4212,
      "δικτύ": 4213,
      "Al": 4214,
      "κόλ": 4215,
      "μότητα": 4216,
      "τίες": 4217,
      "αρχής": 4218,
      "FR": 4219,
      "κόμ": 4220,
      "ανθρωπισ": 4221,
      "ηθ": 4222,
      "ess": 4223,
      "γραμμάτων": 4224,
      "λλαγή": 4225,
      "μακροπρόθεσ": 4226,
      "ταυτόχρονα": 4227,
      "θησης": 4228,
      "πωση": 4229,
      "δέχεται": 4230,
      "μεταφορές": 4231,
      "φιλο": 4232,
      "σταθ": 4233,
      "197": 4234,
      "σεβασμό": 4235,
      "αποστο": 4236,
      "δας": 4237,
      "ίκη": 4238,
      "αίρε": 4239,
      "μβριο": 4240,
      "δεσμευ": 4241,
      "παιδιών": 4242,
      "ατό": 4243,
      "κομ": 4244,
      "ρικό": 4245,
      "θεωρή": 4246,
      "Έτσι": 4247,
      "πέρα": 4248,
      "Κεν": 4249,
      "πος": 4250,
      "γνωρίζει": 4251,
      "καλώ": 4252,
      "προκύ": 4253,
      "ταχύ": 4254,
      "καθι": 4255,
      "παρέχει": 4256,
      "εσωτερική": 4257,
      "μιλή": 4258,
      "τύπωση": 4259,
      "υφί": 4260,
      "διεθνούς": 4261,
      "συνεδρίαση": 4262,
      "πληρώ": 4263,
      "αναπτυσσ": 4264,
      "γχ": 4265,
      "στια": 4266,
      "άδες": 4267,
      "ειά": 4268,
      "παραβι": 4269,
      "οντα": 4270,
      "1999": 4271,
      "παλαι": 4272,
      "ρυθμισ": 4273,
      "Sch": 4274,
      "δαπάν": 4275,
      "Εθνών": 4276,
      "δικαιολογ": 4277,
      "δημοκρατίας": 4278,
      "λικ": 4279,
      "ποια": 4280,
      "κατε": 4281,
      "στάση": 4282,
      "ψήφι": 4283,
      "μπορούσαν": 4284,
      "συναλλα": 4285,
      "Ιανου": 4286,
      "θέματος": 4287,
      "ενισχυ": 4288,
      "προγραμμάτων": 4289,
      "επιτύχουμε": 4290,
      "μικρο": 4291,
      "αναλάβει": 4292,
      "av": 4293,
      "ουσιαστικά": 4294,
      "φών": 4295,
      "ev": 4296,
      "ομάδας": 4297,
      "φου": 4298,
      "συνή": 4299,
      "πτουν": 4300,
      "υλ": 4301,
      "προσχ": 4302,
      "τούνται": 4303,
      "αφού": 4304,
      "συντο": 4305,
      "θι": 4306,
      "δραστηριότητες": 4307,
      "εξετάσουμε": 4308,
      "απαιτήσεις": 4309,
      "επιχεί": 4310,
      "μέσων": 4311,
      "αξιολόγηση": 4312,
      "μάδων": 4313,
      "σιαλισ": 4314,
      "αναπτυξια": 4315,
      "άποψή": 4316,
      "κτη": 4317,
      "δίας": 4318,
      "δαπαν": 4319,
      "γά": 4320,
      "ou": 4321,
      "Δικαιωμάτων": 4322,
      "ορισμένων": 4323,
      "πιν": 4324,
      "Υπάρχει": 4325,
      "μελέ": 4326,
      "ill": 4327,
      "γματι": 4328,
      "τμήμα": 4329,
      "Ιν": 4330,
      "στοιχείο": 4331,
      "γραμμές": 4332,
      "ίνουμε": 4333,
      "Κίνα": 4334,
      "θετική": 4335,
      "περιφέρει": 4336,
      "uro": 4337,
      "Λευ": 4338,
      "άμεσα": 4339,
      "ασθεν": 4340,
      "επενδύσεις": 4341,
      "ίοι": 4342,
      "τερους": 4343,
      "επιστημον": 4344,
      "ώθηκε": 4345,
      "εξελί": 4346,
      "γειο": 4347,
      "εξακολουθεί": 4348,
      "βιώσι": 4349,
      "ist": 4350,
      "αγορές": 4351,
      "ay": 4352,
      "ωφ": 4353,
      "λλακ": 4354,
      "θερ": 4355,
      "διασφαλίσουμε": 4356,
      "ποιότητα": 4357,
      "λλαγής": 4358,
      "δυνάμ": 4359,
      "υπολογ": 4360,
      "op": 4361,
      "τέσσε": 4362,
      "υπόθεση": 4363,
      "Σου": 4364,
      "υπήρξε": 4365,
      "σιδη": 4366,
      "συνορια": 4367,
      "απορρί": 4368,
      "ληξε": 4369,
      "απαραίτητη": 4370,
      "νούν": 4371,
      "λληλα": 4372,
      "οικονομικό": 4373,
      "διάλογο": 4374,
      "σχέδια": 4375,
      "προστατεύ": 4376,
      "te": 4377,
      "ανησυχίες": 4378,
      "Γεωργ": 4379,
      "χορή": 4380,
      "Συνο": 4381,
      "γραφή": 4382,
      "εβδομάδα": 4383,
      "έναρ": 4384,
      "στόχων": 4385,
      "προετοιμα": 4386,
      "ιστάν": 4387,
      "ειδικότερα": 4388,
      "Παρα": 4389,
      "κλεί": 4390,
      "αιο": 4391,
      "πληθυσμού": 4392,
      "τήσουν": 4393,
      "θέσπιση": 4394,
      "πρώτα": 4395,
      "προκλήσεις": 4396,
      "ποιότητας": 4397,
      "τηλε": 4398,
      "στών": 4399,
      "σχετί": 4400,
      "λους": 4401,
      "λούς": 4402,
      "σήμα": 4403,
      "απλά": 4404,
      "άλλοι": 4405,
      "συνδυ": 4406,
      "υφισ": 4407,
      "εξαίρε": 4408,
      "Παρά": 4409,
      "son": 4410,
      "θρη": 4411,
      "ελι": 4412,
      "ίζουμε": 4413,
      "αιτι": 4414,
      "πτικά": 4415,
      "δεκαε": 4416,
      "επεξ": 4417,
      "επιτρέπει": 4418,
      "μιλά": 4419,
      "μπορέσει": 4420,
      "τήρι": 4421,
      "απαγό": 4422,
      "πεδίο": 4423,
      "έδρου": 4424,
      "χρηματοδότησης": 4425,
      "Στις": 4426,
      "πρότυπα": 4427,
      "αναγκαία": 4428,
      "ωδών": 4429,
      "εναν": 4430,
      "δέσμευση": 4431,
      "νομι": 4432,
      "Ανάπτυξη": 4433,
      "γες": 4434,
      "τσ": 4435,
      "αλήθεια": 4436,
      "κυρώ": 4437,
      "οποια": 4438,
      "ρούνται": 4439,
      "θαλ": 4440,
      "επιτροπής": 4441,
      "πρόσθε": 4442,
      "λού": 4443,
      "θετικό": 4444,
      "διάστημα": 4445,
      "κοινωνίας": 4446,
      "συνοχής": 4447,
      "Προεδρίας": 4448,
      "σωστή": 4449,
      "man": 4450,
      "θρα": 4451,
      "εκπροσώ": 4452,
      "σωστά": 4453,
      "τογαλ": 4454,
      "τιμές": 4455,
      "Ρου": 4456,
      "λημάτων": 4457,
      "θέσω": 4458,
      "επικεντ": 4459,
      "μάλλον": 4460,
      "κανόνων": 4461,
      "κω": 4462,
      "στηρί": 4463,
      "Τώρα": 4464,
      "όρους": 4465,
      "έρευνας": 4466,
      "Απο": 4467,
      "ανάγνωση": 4468,
      "όρων": 4469,
      "ρινά": 4470,
      "διαχείρισης": 4471,
      "δομη": 4472,
      "έκκληση": 4473,
      "καθο": 4474,
      "στέ": 4475,
      "αποδεκ": 4476,
      "τίποτα": 4477,
      "διεθνείς": 4478,
      "μέγ": 4479,
      "νεια": 4480,
      "διπλ": 4481,
      "μβασης": 4482,
      "θεωρη": 4483,
      "αντίστοι": 4484,
      "ράς": 4485,
      "αστυ": 4486,
      "πρόσφατα": 4487,
      "σύνορα": 4488,
      "αποτελεσματικό": 4489,
      "τοτε": 4490,
      "παράγον": 4491,
      "εγκρίνει": 4492,
      "Le": 4493,
      "νατολ": 4494,
      "όντων": 4495,
      "Euro": 4496,
      "νία": 4497,
      "υποχρέ": 4498,
      "Κοινότητας": 4499,
      "λαμβάνεται": 4500,
      "πλαίσια": 4501,
      "πρωτοβουλίες": 4502,
      "ηλεκτρο": 4503,
      "Κόμματος": 4504,
      "δώσουμε": 4505,
      "ναμε": 4506,
      "εμπορίου": 4507,
      "Σεπ": 4508,
      "συνιστά": 4509,
      "ύπαρ": 4510,
      "εκτελ": 4511,
      "παράνο": 4512,
      "επιστή": 4513,
      "τεία": 4514,
      "πλαισ": 4515,
      "είπα": 4516,
      "σταμα": 4517,
      "κάνω": 4518,
      "χάρη": 4519,
      "στρέ": 4520,
      "Πέ": 4521,
      "αντικεί": 4522,
      "ουσία": 4523,
      "μετ": 4524,
      "αναφέρω": 4525,
      "καταρχάς": 4526,
      "συμφωνώ": 4527,
      "Βι": 4528,
      "ειλικ": 4529,
      "κύριο": 4530,
      "οδηγήσει": 4531,
      "ros": 4532,
      "συλλογ": 4533,
      "απαγόρ": 4534,
      "δρομ": 4535,
      "δίκτυο": 4536,
      "θήσουν": 4537,
      "επιβεβαι": 4538,
      "βασης": 4539,
      "έντ": 4540,
      "βασίζεται": 4541,
      "Δυστυχώς": 4542,
      "ολή": 4543,
      "υσ": 4544,
      "ποικ": 4545,
      "χν": 4546,
      "κανένα": 4547,
      "χώρο": 4548,
      "πνεύμα": 4549,
      "γουν": 4550,
      "ξω": 4551,
      "ap": 4552,
      "Οκ": 4553,
      "όμενων": 4554,
      "ενδεχ": 4555,
      "ανάλογ": 4556,
      "σπα": 4557,
      "καί": 4558,
      "κάποιες": 4559,
      "τέλους": 4560,
      "δαπάνες": 4561,
      "βεβαίως": 4562,
      "σύντομα": 4563,
      "ΟΕ": 4564,
      "φέρουμε": 4565,
      "ανοί": 4566,
      "περιφέρειες": 4567,
      "ιζ": 4568,
      "διατηρή": 4569,
      "εναλλακ": 4570,
      "ell": 4571,
      "συμβάλει": 4572,
      "ανακοίνωση": 4573,
      "ρίσει": 4574,
      "ειναι": 4575,
      "λης": 4576,
      "αξία": 4577,
      "αυτων": 4578,
      "ανανε": 4579,
      "ρίσουμε": 4580,
      "παρατηρήσεις": 4581,
      "ρούς": 4582,
      "σημεριν": 4583,
      "27": 4584,
      "υρίων": 4585,
      "αντιπροσω": 4586,
      "Μετα": 4587,
      "Οργαν": 4588,
      "κόσμου": 4589,
      "συνεχίσουμε": 4590,
      "ασφαλείας": 4591,
      "πιον": 4592,
      "εκτί": 4593,
      "ρέα": 4594,
      "ποιη": 4595,
      "εναρμό": 4596,
      "σκλη": 4597,
      "Προεδρεύ": 4598,
      "δισεκατομμ": 4599,
      "φυλά": 4600,
      "ne": 4601,
      "Γαλλία": 4602,
      "εύκο": 4603,
      "τονίσω": 4604,
      "καθεστώ": 4605,
      "υλοποι": 4606,
      "κάτω": 4607,
      "θύματα": 4608,
      "ανεξαρ": 4609,
      "Επιτρέ": 4610,
      "Εντούτοις": 4611,
      "τιμών": 4612,
      "ενό": 4613,
      "διαπιστώ": 4614,
      "άκ": 4615,
      "μετάλλ": 4616,
      "μεθ": 4617,
      "αμφιβολ": 4618,
      "κας": 4619,
      "διατήρηση": 4620,
      "Διάσκεψη": 4621,
      "υλοποίηση": 4622,
      "τονται": 4623,
      "ανησυχία": 4624,
      "ισμοί": 4625,
      "πολλούς": 4626,
      "πούμε": 4627,
      "κορυφής": 4628,
      "ίσου": 4629,
      "εθνικά": 4630,
      "Πρώτον": 4631,
      "χος": 4632,
      "Κοσ": 4633,
      "οικ": 4634,
      "χθηκε": 4635,
      "Ιρλανδία": 4636,
      "άσκ": 4637,
      "ονεκ": 4638,
      "διάφορα": 4639,
      "Σύμφωνα": 4640,
      "τεράστι": 4641,
      "πλαισίου": 4642,
      "θενται": 4643,
      "ατόμων": 4644,
      "αλαι": 4645,
      "τείται": 4646,
      "συμπερά": 4647,
      "συνεισ": 4648,
      "νέας": 4649,
      "ανάλυση": 4650,
      "μερικές": 4651,
      "τελεί": 4652,
      "υποστηρίζει": 4653,
      "νιση": 4654,
      "τομέας": 4655,
      "2003": 4656,
      "προσανατολ": 4657,
      "αλληλεγγύη": 4658,
      "απόλυτα": 4659,
      "αξιό": 4660,
      "αναφορικά": 4661,
      "εγκρι": 4662,
      "όμενους": 4663,
      "Τράπεζ": 4664,
      "παράσχ": 4665,
      "αγαπη": 4666,
      "συγκεκριμένες": 4667,
      "Ανάπτυξης": 4668,
      "φτω": 4669,
      "αναγκαίο": 4670,
      "ελπί": 4671,
      "διαθέτει": 4672,
      "έτη": 4673,
      "δίδ": 4674,
      "βρισκ": 4675,
      "καταν": 4676,
      "συστη": 4677,
      "Ισπαν": 4678,
      "40": 4679,
      "δεχο": 4680,
      "000": 4681,
      "καμε": 4682,
      "τελευταίο": 4683,
      "θεμάτων": 4684,
      "συνεχίσει": 4685,
      "εμπιστοσύνη": 4686,
      "μενα": 4687,
      "εκπομπών": 4688,
      "Ελλά": 4689,
      "σωστό": 4690,
      "ωνία": 4691,
      "δυσκολίες": 4692,
      "κί": 4693,
      "διαφόρων": 4694,
      "γενικό": 4695,
      "βληθεί": 4696,
      "επιλογή": 4697,
      "Επιτρέψτε": 4698,
      "ομιλη": 4699,
      "προσεκ": 4700,
      "πίζουμε": 4701,
      "περισσότερη": 4702,
      "πορεία": 4703,
      "διαφορετικά": 4704,
      "περιεχ": 4705,
      "πρόεδρος": 4706,
      "ηλεκτρον": 4707,
      "Κανονισμού": 4708,
      "μονο": 4709,
      "διάσκεψη": 4710,
      "κατάργ": 4711,
      "σιμη": 4712,
      "σιδηρο": 4713,
      "γνωρίζετε": 4714,
      "αναθεώρηση": 4715,
      "έξι": 4716,
      "βέβαια": 4717,
      "θεσε": 4718,
      "είδη": 4719,
      "ενθαρρύν": 4720,
      "έλαβε": 4721,
      "ώνεται": 4722,
      "γίνονται": 4723,
      "επίπεδα": 4724,
      "φιλό": 4725,
      "qu": 4726,
      "βουλευτών": 4727,
      "νέους": 4728,
      "προφανώς": 4729,
      "γρήγορα": 4730,
      "γαλλ": 4731,
      "σπον": 4732,
      "πίεση": 4733,
      "δούμε": 4734,
      "μεταλλ": 4735,
      "τρομοκρατίας": 4736,
      "κατό": 4737,
      "ωφελ": 4738,
      "οποίου": 4739,
      "κανονισμό": 4740,
      "αποτελεσματικά": 4741,
      "σύνδε": 4742,
      "δείξει": 4743,
      "δίνει": 4744,
      "μέτρο": 4745,
      "κεφάλ": 4746,
      "δεχομένως": 4747,
      "τροπή": 4748,
      "μέρη": 4749,
      "ce": 4750,
      "ανδ": 4751,
      "θέλει": 4752,
      "Επ": 4753,
      "ώσω": 4754,
      "έγγραφο": 4755,
      "τηρίου": 4756,
      "αναφορά": 4757,
      "όδους": 4758,
      "Πρόεδρο": 4759,
      "Σώματος": 4760,
      "Πράγματι": 4761,
      "μείων": 4762,
      "παραδεί": 4763,
      "νομισ": 4764,
      "διασυνορια": 4765,
      "παραμένει": 4766,
      "πουμε": 4767,
      "τίου": 4768,
      "ριος": 4769,
      "Απ": 4770,
      "συφο": 4771,
      "εξέταση": 4772,
      "εσωτερικής": 4773,
      "αμερ": 4774,
      "ερωτήσεις": 4775,
      "κατάρτιση": 4776,
      "ήθηκαν": 4777,
      "μεταχεί": 4778,
      "Επιτρό": 4779,
      "εκμετάλλ": 4780,
      "βασικό": 4781,
      "εξετα": 4782,
      "συναν": 4783,
      "σκοπο": 4784,
      "σχεδίου": 4785,
      "δεικνύει": 4786,
      "αναφερθώ": 4787,
      "τεράστια": 4788,
      "πολιτικά": 4789,
      "ισο": 4790,
      "αδύνα": 4791,
      "επιτρέψει": 4792,
      "προβλημα": 4793,
      "κοινοτικό": 4794,
      "στερ": 4795,
      "προϋποθέσεις": 4796,
      "λοβ": 4797,
      "Μετά": 4798,
      "έναρξη": 4799,
      "Νομίζω": 4800,
      "λογος": 4801,
      "μετάσχ": 4802,
      "αισθη": 4803,
      "θεμελιώδη": 4804,
      "ειδ": 4805,
      "κειμένου": 4806,
      "ρυξ": 4807,
      "ώσουν": 4808,
      "Κοσσυφο": 4809,
      "ευμα": 4810,
      "άθα": 4811,
      "κατευθυν": 4812,
      "αξίες": 4813,
      "Ανατολ": 4814,
      "21": 4815,
      "επιχειρημα": 4816,
      "αμφισ": 4817,
      "θεσή": 4818,
      "Ευχα": 4819,
      "γεγονότα": 4820,
      "πίσω": 4821,
      "έκταση": 4822,
      "χαιρετί": 4823,
      "τειν": 4824,
      "ριστια": 4825,
      "ύψ": 4826,
      "Προϋ": 4827,
      "συνέβη": 4828,
      "νωσης": 4829,
      "ελευθερίας": 4830,
      "Λι": 4831,
      "αντιπροσωπ": 4832,
      "στάδιο": 4833,
      "δυνάμεις": 4834,
      "είδος": 4835,
      "αξιολογ": 4836,
      "ριου": 4837,
      "τίον": 4838,
      "ίζοντας": 4839,
      "ht": 4840,
      "προστά": 4841,
      "έβαλε": 4842,
      "εξακολουθούν": 4843,
      "πρόοδος": 4844,
      "διευκολ": 4845,
      "μπό": 4846,
      "II": 4847,
      "προτεραιότητες": 4848,
      "σπου": 4849,
      "ίνου": 4850,
      "δαπανών": 4851,
      "δικής": 4852,
      "πόλε": 4853,
      "απέναντι": 4854,
      "ξεκάθα": 4855,
      "μέσως": 4856,
      "ποσό": 4857,
      "έτοι": 4858,
      "οποιο": 4859,
      "λαμε": 4860,
      "μετανα": 4861,
      "δεις": 4862,
      "δυσ": 4863,
      "Παγκόσ": 4864,
      "πιστών": 4865,
      "φάν": 4866,
      "θεσμικών": 4867,
      "αντικείμενο": 4868,
      "τρίτες": 4869,
      "αίσθη": 4870,
      "Συμφωνώ": 4871,
      "πια": 4872,
      "συστημάτων": 4873,
      "ερμην": 4874,
      "κατανάλ": 4875,
      "Βρυξ": 4876,
      "θεωρούμε": 4877,
      "ελα": 4878,
      "φω": 4879,
      "ενέργειες": 4880,
      "Τρί": 4881,
      "Δεκεμβρίου": 4882,
      "γνωστό": 4883,
      "απαιτείται": 4884,
      "πραγ": 4885,
      "τηρίων": 4886,
      "φελος": 4887,
      "δων": 4888,
      "λήψη": 4889,
      "ΗΠΑ": 4890,
      "απέ": 4891,
      "έσει": 4892,
      "ge": 4893,
      "Στα": 4894,
      "ιδιο": 4895,
      "εξαιτίας": 4896,
      "ρόντων": 4897,
      "κριν": 4898,
      "απαγο": 4899,
      "ρησε": 4900,
      "υπερβολικά": 4901,
      "όφελος": 4902,
      "πρόκληση": 4903,
      "νομικών": 4904,
      "αντιμετωπίζουν": 4905,
      "διαφορετικές": 4906,
      "ιστορία": 4907,
      "αίτημα": 4908,
      "Ηνωμένων": 4909,
      "έμφαση": 4910,
      "ενδεχομένως": 4911,
      "επικίνδυ": 4912,
      "ανοικ": 4913,
      "άμεση": 4914,
      "Αφρική": 4915,
      "συμβεί": 4916,
      "έμβριο": 4917,
      "πληροφό": 4918,
      "φερόντων": 4919,
      "συμμετάσχ": 4920,
      "μεταφορά": 4921,
      "οδή": 4922,
      "ναρκ": 4923,
      "φορείς": 4924,
      "γης": 4925,
      "εγκλημα": 4926,
      "ran": 4927,
      "ρύθμισης": 4928,
      "ριμ": 4929,
      "δειξη": 4930,
      "est": 4931,
      "Προϋπολογ": 4932,
      "ωθούν": 4933,
      "IT": 4934,
      "φροντί": 4935,
      "τηρεί": 4936,
      "στες": 4937,
      "ματά": 4938,
      "λειο": 4939,
      "γού": 4940,
      "προσχώ": 4941,
      "σταθερότητα": 4942,
      "our": 4943,
      "ευνο": 4944,
      "κεφα": 4945,
      "συνεργασ": 4946,
      "εξίσου": 4947,
      "τοπο": 4948,
      "Αμ": 4949,
      "μανία": 4950,
      "γνωρίζω": 4951,
      "εκμεταλλ": 4952,
      "θυπουργ": 4953,
      "αντιμετωπίσουμε": 4954,
      "στοχ": 4955,
      "δειξε": 4956,
      "θέλουν": 4957,
      "σιμα": 4958,
      "εγκλή": 4959,
      "Πολιτικής": 4960,
      "ομάδων": 4961,
      "χαί": 4962,
      "επεισ": 4963,
      "γνωρίζουν": 4964,
      "βοηθήσει": 4965,
      "αρία": 4966,
      "έληξε": 4967,
      "γματος": 4968,
      "σδήποτε": 4969,
      "καθόλου": 4970,
      "θηκών": 4971,
      "χαρακτηρισ": 4972,
      "τροποποίηση": 4973,
      "επεί": 4974,
      "αμοιβα": 4975,
      "επιτέλους": 4976,
      "τώντας": 4977,
      "όσους": 4978,
      "ωσε": 4979,
      "διασφάλ": 4980,
      "συμφερόντων": 4981,
      "ξεχ": 4982,
      "δελ": 4983,
      "ησης": 4984,
      "τίθενται": 4985,
      "Φυσ": 4986,
      "ησε": 4987,
      "ξέ": 4988,
      "στανται": 4989,
      "ισορροπία": 4990,
      "έχετε": 4991,
      "εσείς": 4992,
      "χοι": 4993,
      "PL": 4994,
      "επιθυμεί": 4995,
      "ανέφερε": 4996,
      "ζώων": 4997,
      "τύπου": 4998,
      "ub": 4999,
      "αλισ": 5000,
      "αναφέρει": 5001,
      "παρουσιά": 5002,
      "κέρ": 5003,
      "αποδεχ": 5004,
      "ουνίου": 5005,
      "εναντίον": 5006,
      "Ει": 5007,
      "μενη": 5008,
      "io": 5009,
      "εκείνους": 5010,
      "ρινε": 5011,
      "Εξωτερικών": 5012,
      "φτά": 5013,
      "υποχρέωση": 5014,
      "ευθύν": 5015,
      "πιστεύουμε": 5016,
      "δικές": 5017,
      "σύμφων": 5018,
      "φέρονται": 5019,
      "δωσε": 5020,
      "ΜΕ": 5021,
      "οργανώσεις": 5022,
      "τομε": 5023,
      "τελική": 5024,
      "ανταγωνισμό": 5025,
      "Λαϊκ": 5026,
      "αμερικαν": 5027,
      "αφε": 5028,
      "ξεκίνη": 5029,
      "διασφάλιση": 5030,
      "θαλά": 5031,
      "ούργ": 5032,
      "μονω": 5033,
      "ενο": 5034,
      "ολοκληρώ": 5035,
      "δοσης": 5036,
      "ολοκλήρωση": 5037,
      "θανα": 5038,
      "εύει": 5039,
      "απόφασης": 5040,
      "έκρινε": 5041,
      "δουλειά": 5042,
      "εξη": 5043,
      "εξαγω": 5044,
      "σχέσεων": 5045,
      "χρειάζονται": 5046,
      "φτώχειας": 5047,
      "δρόμο": 5048,
      "υπερασ": 5049,
      "2002": 5050,
      "γαν": 5051,
      "πόθεση": 5052,
      "καμ": 5053,
      "προβλημάτων": 5054,
      "φύλα": 5055,
      "Καλ": 5056,
      "κράτες": 5057,
      "BN": 5058,
      "λογικό": 5059,
      "παρέχ": 5060,
      "δύναμη": 5061,
      "προσδιο": 5062,
      "βιομηχανίας": 5063,
      "οικοδό": 5064,
      "λημ": 5065,
      "ανεξάρτη": 5066,
      "ak": 5067,
      "απά": 5068,
      "χρόνου": 5069,
      "όμενοι": 5070,
      "υφιστάμε": 5071,
      "au": 5072,
      "παγκόσμιο": 5073,
      "γεω": 5074,
      "τιο": 5075,
      "καθυστε": 5076,
      "απελευ": 5077,
      "χρήσης": 5078,
      "γεωργία": 5079,
      "Ολο": 5080,
      "αιώνα": 5081,
      "γραφειο": 5082,
      "μικρές": 5083,
      "αναμφ": 5084,
      "βασικά": 5085,
      "ian": 5086,
      "δείχνει": 5087,
      "εντά": 5088,
      "αντίκ": 5089,
      "μεταρρυθμίσεις": 5090,
      "Αρ": 5091,
      "ψαν": 5092,
      "άρθρου": 5093,
      "Ιανουαρίου": 5094,
      "ίβ": 5095,
      "γιο": 5096,
      "χολ": 5097,
      "όρα": 5098,
      "εκείνη": 5099,
      "θες": 5100,
      "μπορούσαμε": 5101,
      "αμέσως": 5102,
      "κυκλοφορία": 5103,
      "ΜΜΕ": 5104,
      "κοινωνικών": 5105,
      "κοινωνικές": 5106,
      "Γερμανία": 5107,
      "ικοδομη": 5108,
      "κριτική": 5109,
      "Ευχαριστώ": 5110,
      "πρώην": 5111,
      "συμπληρω": 5112,
      "σίγουρα": 5113,
      "ISBN": 5114,
      "πολε": 5115,
      "εποικοδομη": 5116,
      "Δημοκρατία": 5117,
      "Πρω": 5118,
      "τατο": 5119,
      "θέτηση": 5120,
      "ich": 5121,
      "ενεργειακή": 5122,
      "Γιατί": 5123,
      "ερευνη": 5124,
      "ES": 5125,
      "ειρήνη": 5126,
      "κατάλληλη": 5127,
      "κοινωνικό": 5128,
      "εκπαίδευσης": 5129,
      "συνδυασ": 5130,
      "Φυσικά": 5131,
      "ίλειο": 5132,
      "Την": 5133,
      "ευκαιρίες": 5134,
      "εκτέλε": 5135,
      "ine": 5136,
      "ανώ": 5137,
      "αναφέρθηκε": 5138,
      "σκεψης": 5139,
      "μόρφωση": 5140,
      "διεθνές": 5141,
      "πότε": 5142,
      "σύσταση": 5143,
      "κλίματος": 5144,
      "Ισραήλ": 5145,
      "περιοχής": 5146,
      "λιο": 5147,
      "196": 5148,
      "απώ": 5149,
      "εξαιρετική": 5150,
      "εντο": 5151,
      "σφα": 5152,
      "υσί": 5153,
      "προϋπόθεση": 5154,
      "εξελίξεις": 5155,
      "προγραμμα": 5156,
      "γνωμοδό": 5157,
      "διαλόγου": 5158,
      "Νό": 5159,
      "βάλλει": 5160,
      "θάρ": 5161,
      "ενιαία": 5162,
      "δημοσι": 5163,
      "ζε": 5164,
      "αγγ": 5165,
      "Ιτα": 5166,
      "αναγκ": 5167,
      "ΠΟΕ": 5168,
      "νομή": 5169,
      "θί": 5170,
      "Μαρ": 5171,
      "ΚΕ": 5172,
      "έκφρα": 5173,
      "παράλληλα": 5174,
      "ενίσχυσης": 5175,
      "Ουκρα": 5176,
      "φαιν": 5177,
      "συμπεράσματα": 5178,
      "πρότει": 5179,
      "γειτον": 5180,
      "κοινότητα": 5181,
      "θετικά": 5182,
      "Έχει": 5183,
      "τροπολογίας": 5184,
      "υπέ": 5185,
      "Ταμείο": 5186,
      "εντα": 5187,
      "στευ": 5188,
      "κυρια": 5189,
      "ασχο": 5190,
      "ήσω": 5191,
      "θέσουμε": 5192,
      "ελιξ": 5193,
      "διαφορές": 5194,
      "πεύει": 5195,
      "ποιος": 5196,
      "αντιμετωπίζει": 5197,
      "Στρα": 5198,
      "επιπέ": 5199,
      "καθημε": 5200,
      "λαίου": 5201,
      "αναπτυσσόμενες": 5202,
      "αυξαν": 5203,
      "ik": 5204,
      "προτειν": 5205,
      "απασχολ": 5206,
      "περιεχόμενο": 5207,
      "μπροστά": 5208,
      "ανατολ": 5209,
      "ολοένα": 5210,
      "προτάσεων": 5211,
      "ανία": 5212,
      "ευελιξ": 5213,
      "εσάς": 5214,
      "στάσεων": 5215,
      "χέ": 5216,
      "ευημε": 5217,
      "προχωρήσουμε": 5218,
      "απόψε": 5219,
      "εβδομάδες": 5220,
      "συγκρού": 5221,
      "αιτέρως": 5222,
      "Σοσιαλισ": 5223,
      "επαγγελμα": 5224,
      "προκειμένω": 5225,
      "κοινοτική": 5226,
      "ώρες": 5227,
      "συνθήκη": 5228,
      "εξετάσει": 5229,
      "ανανεώσι": 5230,
      "Ιουνίου": 5231,
      "παιχν": 5232,
      "εκστρα": 5233,
      "εργασίες": 5234,
      "επόμενη": 5235,
      "ώνονται": 5236,
      "πολλών": 5237,
      "οποιαδήποτε": 5238,
      "ουσι": 5239,
      "επεκ": 5240,
      "κυβερνήσεων": 5241,
      "διασφαλιστεί": 5242,
      "περιέχει": 5243,
      "ονταν": 5244,
      "Βρε": 5245,
      "2020": 5246,
      "λυση": 5247,
      "λέει": 5248,
      "Βασίλειο": 5249,
      "λαμβάνοντας": 5250,
      "νόμι": 5251,
      "προόδου": 5252,
      "αιτιολογ": 5253,
      "Μά": 5254,
      "βρεταν": 5255,
      "Ασφαλ": 5256,
      "απαγόρευση": 5257,
      "τοποίηση": 5258,
      "δοκ": 5259,
      "ιδιαιτέρως": 5260,
      "εκπρόσω": 5261,
      "εποχή": 5262,
      "λειτουργεί": 5263,
      "ικανότητα": 5264,
      "επισή": 5265,
      "εργο": 5266,
      "εργάζονται": 5267,
      "στούμε": 5268,
      "άνθρα": 5269,
      "οπω": 5270,
      "νταμ": 5271,
      "παγκοσμιο": 5272,
      "αργότερα": 5273,
      "εμπλ": 5274,
      "πιέ": 5275,
      "ob": 5276,
      "συμφωνιών": 5277,
      "γερμαν": 5278,
      "Πορ": 5279,
      "χαμηλό": 5280,
      "επόμενο": 5281,
      "ψηφίσουμε": 5282,
      "ίσταται": 5283,
      "υποβάλει": 5284,
      "ενώπιον": 5285,
      "συγκεντ": 5286,
      "χρέ": 5287,
      "πτώσεων": 5288,
      "Έχω": 5289,
      "εξωτερική": 5290,
      "τζέν": 5291,
      "100": 5292,
      "ανοι": 5293,
      "επιτρέψτε": 5294,
      "διαγραφ": 5295,
      "Κοινότητα": 5296,
      "τέρου": 5297,
      "ρης": 5298,
      "λάθος": 5299,
      "υποχρεώσεις": 5300,
      "προστατευ": 5301,
      "λίας": 5302,
      "αντιμετωπισ": 5303,
      "νια": 5304,
      "γλώσσα": 5305,
      "επίση": 5306,
      "πρόληψη": 5307,
      "οικογεν": 5308,
      "όδων": 5309,
      "άνοι": 5310,
      "καθορίζ": 5311,
      "χωρισ": 5312,
      "στόχοι": 5313,
      "δεδομένα": 5314,
      "τίτ": 5315,
      "μεσολαβ": 5316,
      "ανεξαρτη": 5317,
      "Σα": 5318,
      "εργαλ": 5319,
      "νική": 5320,
      "δηλών": 5321,
      "σκό": 5322,
      "άφη": 5323,
      "ασχολ": 5324,
      "σοβαρές": 5325,
      "ωστε": 5326,
      "σκεφ": 5327,
      "ρίζει": 5328,
      "περίθαλ": 5329,
      "διεύρυνσης": 5330,
      "ανταποκρί": 5331,
      "εκτε": 5332,
      "ναρκω": 5333,
      "σταθερότητας": 5334,
      "όμενης": 5335,
      "συμβολή": 5336,
      "Σουη": 5337,
      "μαρτυ": 5338,
      "ξα": 5339,
      "Τον": 5340,
      "υπηρεσία": 5341,
      "άλει": 5342,
      "γενικά": 5343,
      "ενσωμά": 5344,
      "24": 5345,
      "υγειο": 5346,
      "τάται": 5347,
      "συναίν": 5348,
      "θέτως": 5349,
      "προβλήματος": 5350,
      "αλιείας": 5351,
      "λονότι": 5352,
      "λάβω": 5353,
      "Γρα": 5354,
      "αυστηρό": 5355,
      "εισαγωγή": 5356,
      "τωση": 5357,
      "ταρ": 5358,
      "νούμε": 5359,
      "Ελλάδα": 5360,
      "ληπ": 5361,
      "επιτύχει": 5362,
      "συνεπάγεται": 5363,
      "ληψης": 5364,
      "συνοχή": 5365,
      "χρησιμοποιούνται": 5366,
      "Pr": 5367,
      "ουσ": 5368,
      "συνάν": 5369,
      "αναγνώριση": 5370,
      "δραση": 5371,
      "εκατομμυρίων": 5372,
      "θέν": 5373,
      "τευση": 5374,
      "τηκε": 5375,
      "εθνική": 5376,
      "23": 5377,
      "ημέρες": 5378,
      "Ψή": 5379,
      "διέ": 5380,
      "γενική": 5381,
      "εγκρίθηκε": 5382,
      "εγγύ": 5383,
      "Ποι": 5384,
      "der": 5385,
      "ενέκρινε": 5386,
      "κέν": 5387,
      "αλλαγής": 5388,
      "εργά": 5389,
      "1998": 5390,
      "μεμονω": 5391,
      "φόρου": 5392,
      "αγνο": 5393,
      "δημόσιες": 5394,
      "Ψήφισ": 5395,
      "Νομισ": 5396,
      "φθη": 5397,
      "πηγές": 5398,
      "ονομα": 5399,
      "κατάργηση": 5400,
      "ier": 5401,
      "Εδώ": 5402,
      "συμμετέχουν": 5403,
      "προσωπικό": 5404,
      "τητές": 5405,
      "μεύ": 5406,
      "ζημι": 5407,
      "Un": 5408,
      "ρίζονται": 5409,
      "επικου": 5410,
      "αποκαλ": 5411,
      "ευρε": 5412,
      "γενε": 5413,
      "Βουλ": 5414,
      "ελλεί": 5415,
      "ισχυρό": 5416,
      "χρονο": 5417,
      "εφο": 5418,
      "Αυτά": 5419,
      "εξουσία": 5420,
      "στατισ": 5421,
      "παράγραφος": 5422,
      "διάθεση": 5423,
      "ok": 5424,
      "συντομό": 5425,
      "θερμά": 5426,
      "Κυριος": 5427,
      "Ηνωμένες": 5428,
      "πλων": 5429,
      "σύγ": 5430,
      "πληρών": 5431,
      "κανονισμός": 5432,
      "δημοκρατική": 5433,
      "ίβο": 5434,
      "σχετίζονται": 5435,
      "εγκριθεί": 5436,
      "σχέσης": 5437,
      "ειδική": 5438,
      "ερχ": 5439,
      "Εμείς": 5440,
      "τηθούν": 5441,
      "τεμβ": 5442,
      "δέκα": 5443,
      "βρισκόμαστε": 5444,
      "ύνει": 5445,
      "Περιβάλλον": 5446,
      "περιοχών": 5447,
      "1997": 5448,
      "φάση": 5449,
      "αγώνα": 5450,
      "έργα": 5451,
      "στερνταμ": 5452,
      "αυτους": 5453,
      "αυξάν": 5454,
      "αποκλειστικά": 5455,
      "πευ": 5456,
      "ασύ": 5457,
      "προσωπικά": 5458,
      "οργανω": 5459,
      "δύσκολη": 5460,
      "Barros": 5461,
      "κεντρ": 5462,
      "ασκή": 5463,
      "μεταφοράς": 5464,
      "τεμβρίου": 5465,
      "ρις": 5466,
      "επιθυμούν": 5467,
      "ίσαμε": 5468,
      "ιας": 5469,
      "θεσπί": 5470,
      "Σεπτεμβρίου": 5471,
      "αγαπητοί": 5472,
      "παράγ": 5473,
      "χθη": 5474,
      "πόροι": 5475,
      "πάντοτε": 5476,
      "στρε": 5477,
      "συνήθ": 5478,
      "Ψήφισα": 5479,
      "διασφαλίσει": 5480,
      "ρόλος": 5481,
      "εναρμόνιση": 5482,
      "περιθώ": 5483,
      "ορισμένοι": 5484,
      "μπου": 5485,
      "φαρ": 5486,
      "ψυ": 5487,
      "νωμένων": 5488,
      "ώνουν": 5489,
      "ρυν": 5490,
      "ισότητα": 5491,
      "ανοιχ": 5492,
      "Ζη": 5493,
      "όργανο": 5494,
      "διοίκη": 5495,
      "πεπεισ": 5496,
      "Ευρωπαίων": 5497,
      "μεσολαβη": 5498,
      "θεσης": 5499,
      "ναυ": 5500,
      "Ιταλία": 5501,
      "καταστροφή": 5502,
      "Eυ": 5503,
      "ενω": 5504,
      "ειδη": 5505,
      "εσωτερικό": 5506,
      "εμπειρία": 5507,
      "εικό": 5508,
      "παράγοντες": 5509,
      "Πρακ": 5510,
      "Barroso": 5511,
      "απογο": 5512,
      "εστι": 5513,
      "ont": 5514,
      "αξιοπισ": 5515,
      "συζητήσουμε": 5516,
      "πρόσβασης": 5517,
      "αντίκτυπο": 5518,
      "φον": 5519,
      "Κοινων": 5520,
      "άνθρακα": 5521,
      "Ne": 5522,
      "εκπαι": 5523,
      "2011": 5524,
      "Ελεγκ": 5525,
      "Re": 5526,
      "προηγου": 5527,
      "ξι": 5528,
      "ενδιαφερό": 5529,
      "πισης": 5530,
      "ζώνη": 5531,
      "θοδο": 5532,
      "υπενθυμίσω": 5533,
      "αλη": 5534,
      "ροή": 5535,
      "σοβαρή": 5536,
      "ανάληψη": 5537,
      "βολής": 5538,
      "δημιουργήσει": 5539,
      "πρακτική": 5540,
      "Φεβ": 5541,
      "Φεβρου": 5542,
      "δρυ": 5543,
      "κοντά": 5544,
      "αθλη": 5545,
      "τραπεζ": 5546,
      "ισμα": 5547,
      "ity": 5548,
      "έλλες": 5549,
      "60": 5550,
      "Δεδο": 5551,
      "ομό": 5552,
      "πώ": 5553,
      "Αυτές": 5554,
      "μουν": 5555,
      "επικρα": 5556,
      "σεν": 5557,
      "μόνι": 5558,
      "μετανάστευση": 5559,
      "πρακτικά": 5560,
      "ζητούμε": 5561,
      "χομαι": 5562,
      "ύπαρξη": 5563,
      "ανέφε": 5564,
      "καθεστώτος": 5565,
      "Ακό": 5566,
      "Δικαστήριο": 5567,
      "Όλοι": 5568,
      "Συνέλ": 5569,
      "όρια": 5570,
      "αντ": 5571,
      "διορ": 5572,
      "ug": 5573,
      "πράξεις": 5574,
      "1η": 5575,
      "δεδ": 5576,
      "άνω": 5577,
      "πλευρές": 5578,
      "τεται": 5579,
      "σφαι": 5580,
      "Μαρτίου": 5581,
      "εξοπλ": 5582,
      "πόλη": 5583,
      "στές": 5584,
      "μιλάμε": 5585,
      "διατε": 5586,
      "τρόπους": 5587,
      "80": 5588,
      "di": 5589,
      "Περιβάλλοντος": 5590,
      "διαβ": 5591,
      "όσων": 5592,
      "κίνηση": 5593,
      "κατευθυντήρι": 5594,
      "εκπό": 5595,
      "Προέδρου": 5596,
      "στήριξης": 5597,
      "ts": 5598,
      "ητο": 5599,
      "δικτύου": 5600,
      "Τσε": 5601,
      "τωβ": 5602,
      "εκείνες": 5603,
      "ώδη": 5604,
      "πρακτικές": 5605,
      "γλω": 5606,
      "αποφά": 5607,
      "έγιναν": 5608,
      "δικαιοσύνης": 5609,
      "ισθεί": 5610,
      "μικρομεσα": 5611,
      "ΐου": 5612,
      "πραγματοποιηθεί": 5613,
      "De": 5614,
      "μικρή": 5615,
      "ανεργίας": 5616,
      "22": 5617,
      "Μπορεί": 5618,
      "προέλ": 5619,
      "Πορτογαλ": 5620,
      "άγονται": 5621,
      "απευθύ": 5622,
      "επίλυση": 5623,
      "πλού": 5624,
      "ριοτήτων": 5625,
      "επιθυμούμε": 5626,
      "ποικι": 5627,
      "αγων": 5628,
      "τρίτο": 5629,
      "Νοεμβρίου": 5630,
      "υπογραμμίσω": 5631,
      "τωβρίου": 5632,
      "μέθοδο": 5633,
      "καινοτομία": 5634,
      "ενδέχεται": 5635,
      "Ιράν": 5636,
      "τραπεί": 5637,
      "εύσεις": 5638,
      "θρησκευ": 5639,
      "δραστηριοτήτων": 5640,
      "διάσταση": 5641,
      "διακρίσεις": 5642,
      "τιθέ": 5643,
      "οντες": 5644,
      "αρμοδιότητα": 5645,
      "θερα": 5646,
      "Μαΐου": 5647,
      "έντον": 5648,
      "Βουλγ": 5649,
      "παρεμβ": 5650,
      "εύουν": 5651,
      "ότητά": 5652,
      "ζητήσω": 5653,
      "διαπιστών": 5654,
      "σχεδιασ": 5655,
      "αυξηθεί": 5656,
      "χιλιάδες": 5657,
      "κάπως": 5658,
      "φόρο": 5659,
      "κύριος": 5660,
      "χαρά": 5661,
      "αεροπορ": 5662,
      "όριο": 5663,
      "σχόλ": 5664,
      "παραβία": 5665,
      "προηγούμενη": 5666,
      "έθ": 5667,
      "Πριν": 5668,
      "κίνδυνος": 5669,
      "Βρυξέλλες": 5670,
      "Οκτωβρίου": 5671,
      "διαβεβαι": 5672,
      "δημιουργεί": 5673,
      "άγει": 5674,
      "ραι": 5675,
      "διοργαν": 5676,
      "μετανάστευσης": 5677,
      "κουν": 5678,
      "επιστρέ": 5679,
      "Όλα": 5680,
      "δολο": 5681,
      "παροχής": 5682,
      "δεξ": 5683,
      "κοινωνικά": 5684,
      "εταίρους": 5685,
      "ειακής": 5686,
      "κώ": 5687,
      "δεσμεύσεις": 5688,
      "δαν": 5689,
      "επιδο": 5690,
      "αλλάξει": 5691,
      "ευθύνες": 5692,
      "τέλη": 5693,
      "ασχολη": 5694,
      "αντιμετωπίσει": 5695,
      "ενσωμα": 5696,
      "διαδικασιών": 5697,
      "Σύν": 5698,
      "θουσα": 5699,
      "Σλοβ": 5700,
      "μπε": 5701,
      "συνάδελφο": 5702,
      "μισθ": 5703,
      "διευκριν": 5704,
      "ΕΤ": 5705,
      "τροπολογιών": 5706,
      "καταργ": 5707,
      "εισηγητές": 5708,
      "ann": 5709,
      "δέσμη": 5710,
      "ph": 5711,
      "αποβλή": 5712,
      "ευχαριστ": 5713,
      "προσδοκ": 5714,
      "συνταξ": 5715,
      "παραδο": 5716,
      "ευαίσθη": 5717,
      "συνόρων": 5718,
      "λήψης": 5719,
      "οτι": 5720,
      "κριση": 5721,
      "ανεπαρκ": 5722,
      "Γεωργίας": 5723,
      "διαμορφ": 5724,
      "ταχεί": 5725,
      "αξίζει": 5726,
      "ενόψει": 5727,
      "αποβλήτων": 5728,
      "νομικό": 5729,
      "Αμστερνταμ": 5730,
      "οντος": 5731,
      "ξαμε": 5732,
      "οδήγη": 5733,
      "ισχυρή": 5734,
      "Ρο": 5735,
      "σώ": 5736,
      "προϋπολογισμός": 5737,
      "χορήγηση": 5738,
      "ens": 5739,
      "σύγκρου": 5740,
      "Συνοπτικά": 5741,
      "1996": 5742,
      "προκαλεί": 5743,
      "ισορροπη": 5744,
      "αντιμετωπίζουμε": 5745,
      "λεται": 5746,
      "μουσ": 5747,
      "λαβα": 5748,
      "αξιολόγησης": 5749,
      "ξεκινήσει": 5750,
      "βασικές": 5751,
      "πρωτοβουλίας": 5752,
      "διαθέτουν": 5753,
      "σιμότητα": 5754,
      "εποπτ": 5755,
      "Eπι": 5756,
      "Θέ": 5757,
      "χρησιμοποιούν": 5758,
      "αποτελεσματικότητα": 5759,
      "βάλουμε": 5760,
      "σημειωθεί": 5761,
      "ριστε": 5762,
      "μπορέσουν": 5763,
      "βούληση": 5764,
      "βλέπουμε": 5765,
      "λαό": 5766,
      "χρειασ": 5767,
      "διαφάνειας": 5768,
      "σαφείς": 5769,
      "υποψήφι": 5770,
      "ημέρα": 5771,
      "κόστους": 5772,
      "σύντο": 5773,
      "βασι": 5774,
      "γουμε": 5775,
      "αποστολή": 5776,
      "παρέμβ": 5777,
      "σαφήνεια": 5778,
      "Εσωτερ": 5779,
      "προσπάθειές": 5780,
      "έγγραφα": 5781,
      "ενημέρωση": 5782,
      "μίζει": 5783,
      "οπωσδήποτε": 5784,
      "κύρια": 5785,
      "μότητας": 5786,
      "αλληλεγγύης": 5787,
      "επιλέ": 5788,
      "εξέφρα": 5789,
      "Βρεταν": 5790,
      "άριο": 5791,
      "λίου": 5792,
      "πτυχή": 5793,
      "στική": 5794,
      "Πρακτικά": 5795,
      "χήματα": 5796,
      "διακο": 5797,
      "πλά": 5798,
      "συνά": 5799,
      "ενισχύσεις": 5800,
      "αποφύ": 5801,
      "Ar": 5802,
      "ζι": 5803,
      "κινδύνους": 5804,
      "γκεν": 5805,
      "εμπειρο": 5806,
      "επικουρικό": 5807,
      "διοτι": 5808,
      "σαφής": 5809,
      "ζοντας": 5810,
      "εντύπωση": 5811,
      "μέλεια": 5812,
      "ευρωπαίων": 5813,
      "υι": 5814,
      "επιρ": 5815,
      "ack": 5816,
      "σιας": 5817,
      "αρχικά": 5818,
      "Κι": 5819,
      "ειδών": 5820,
      "υποστηρίζω": 5821,
      "έκδοση": 5822,
      "χειρό": 5823,
      "ειλημ": 5824,
      "Πώς": 5825,
      "μόνη": 5826,
      "Κορυφής": 5827,
      "ησαν": 5828,
      "προοπτική": 5829,
      "ισπαν": 5830,
      "περιόδου": 5831,
      "Υποστηρίζ": 5832,
      "ισης": 5833,
      "Φιλ": 5834,
      "πλήτ": 5835,
      "επιθυμία": 5836,
      "Pro": 5837,
      "επιτεύ": 5838,
      "κυκλοφορίας": 5839,
      "ιρλαν": 5840,
      "πρωί": 5841,
      "διαφαν": 5842,
      "συνόδου": 5843,
      "ρειών": 5844,
      "παρόμοι": 5845,
      "ολόκληρο": 5846,
      "διαβούλ": 5847,
      "Παλαι": 5848,
      "υγι": 5849,
      "συνειδη": 5850,
      "ιδρύ": 5851,
      "διαφων": 5852,
      "ζητώ": 5853,
      "εξωτερικής": 5854,
      "καθυστέ": 5855,
      "στω": 5856,
      "ζωτικής": 5857,
      "κάποιος": 5858,
      "ρικαν": 5859,
      "λεπτομε": 5860,
      "τειών": 5861,
      "Έκ": 5862,
      "πηρε": 5863,
      "λειτουργίας": 5864,
      "τατα": 5865,
      "άρα": 5866,
      "φέλη": 5867,
      "άγουμε": 5868,
      "δομή": 5869,
      "άλλωστε": 5870,
      "αγορών": 5871,
      "ίδιες": 5872,
      "φθεί": 5873,
      "προφορ": 5874,
      "σεξ": 5875,
      "ang": 5876,
      "uc": 5877,
      "ανταγωνιστικότητα": 5878,
      "φόρ": 5879,
      "σσεται": 5880,
      "καταστάσεις": 5881,
      "κυριαρχ": 5882,
      "βασική": 5883,
      "ατυ": 5884,
      "στοιχείων": 5885,
      "σύνοδο": 5886,
      "ίστηκε": 5887,
      "γοί": 5888,
      "παρακολούθηση": 5889,
      "εικόνα": 5890,
      "κοινοτικού": 5891,
      "εκπαιδευ": 5892,
      "προδιαγραφ": 5893,
      "προοπτικές": 5894,
      "επιπέδου": 5895,
      "αντίθεση": 5896,
      "καλύπτει": 5897,
      "ηγε": 5898,
      "συστάσεις": 5899,
      "θερμο": 5900,
      "χημάτων": 5901,
      "Βε": 5902,
      "ροα": 5903,
      "πραγματικό": 5904,
      "νομαι": 5905,
      "συναλλαγών": 5906,
      "αει": 5907,
      "έκα": 5908,
      "ειρηνευ": 5909,
      "απου": 5910,
      "συνολικά": 5911,
      "Σέν": 5912,
      "πετρε": 5913,
      "διαθέτουμε": 5914,
      "ύς": 5915,
      "περιφέρ": 5916,
      "συμπεριλαμβανομένων": 5917,
      "αστυνομ": 5918,
      "λογία": 5919,
      "δημιουργίας": 5920,
      "γύρω": 5921,
      "sk": 5922,
      "καθιέ": 5923,
      "Th": 5924,
      "οφείλουμε": 5925,
      "Σένγκεν": 5926,
      "όπλων": 5927,
      "ΤΟ": 5928,
      "θουν": 5929,
      "τράπεζ": 5930,
      "κορω": 5931,
      "αρκετές": 5932,
      "υπήρχε": 5933,
      "ίβολα": 5934,
      "κατανό": 5935,
      "καθιστά": 5936,
      "όνομα": 5937,
      "νοί": 5938,
      "δημιουργηθεί": 5939,
      "ημερο": 5940,
      "μέτω": 5941,
      "επω": 5942,
      "Χρειαζόμαστε": 5943,
      "art": 5944,
      "οργανισμούς": 5945,
      "ant": 5946,
      "συντονισ": 5947,
      "οργάνωση": 5948,
      "ξανά": 5949,
      "λανδία": 5950,
      "επιβολή": 5951,
      "ρυθμίσεων": 5952,
      "όσοι": 5953,
      "μονή": 5954,
      "διακό": 5955,
      "Διεθ": 5956,
      "oh": 5957,
      "υποστηρίξουμε": 5958,
      "εντολή": 5959,
      "θέλαμε": 5960,
      "μέλους": 5961,
      "Γνωρίζουμε": 5962,
      "μέρει": 5963,
      "δίκη": 5964,
      "διακρίσεων": 5965,
      "ΣΕ": 5966,
      "αξιοποι": 5967,
      "διάθεσή": 5968,
      "οφέλη": 5969,
      "ζα": 5970,
      "συνδέονται": 5971,
      "αμφισβη": 5972,
      "Βίβ": 5973,
      "απαγορεύ": 5974,
      "αια": 5975,
      "επικρο": 5976,
      "Χω": 5977,
      "ρωθεί": 5978,
      "δυο": 5979,
      "προσωπικού": 5980,
      "μελλοντική": 5981,
      "επενδύσεων": 5982,
      "επιβα": 5983,
      "σφάλ": 5984,
      "μερικά": 5985,
      "ελή": 5986,
      "κοινοτικής": 5987,
      "σιδηροδρομ": 5988,
      "ιδιοκτη": 5989,
      "ψηφοφορίας": 5990,
      "υποστηρίξει": 5991,
      "βάλλεται": 5992,
      "αρμοδιότητες": 5993,
      "απαράδεκτο": 5994,
      "στως": 5995,
      "Ήταν": 5996,
      "Ισπανία": 5997,
      "Αυστ": 5998,
      "τευσης": 5999,
      "ίδιος": 6000,
      "συζητούμε": 6001,
      "εθε": 6002,
      "εξηγή": 6003,
      "αγρό": 6004,
      "Μό": 6005,
      "τρομοκρα": 6006,
      "δραστηριότητα": 6007,
      "επέκταση": 6008,
      "κονδύ": 6009,
      "κυρώσεις": 6010,
      "ριά": 6011,
      "πρότεινε": 6012,
      "δημοσ": 6013,
      "Υπηρε": 6014,
      "διαφορετική": 6015,
      "Πράσι": 6016,
      "ass": 6017,
      "φελη": 6018,
      "up": 6019,
      "πρωτα": 6020,
      "σταθερο": 6021,
      "μελέτη": 6022,
      "διεξαγωγή": 6023,
      "ουαλ": 6024,
      "σίως": 6025,
      "ιάς": 6026,
      "επανειλημ": 6027,
      "εταιρικής": 6028,
      "προβλέπεται": 6029,
      "υπα": 6030,
      "πρωθυπουργ": 6031,
      "βήματα": 6032,
      "ειρήνης": 6033,
      "δημόσιας": 6034,
      "χρησιμοποιείται": 6035,
      "μελε": 6036,
      "τείας": 6037,
      "κληρο": 6038,
      "μεγάλα": 6039,
      "ταμεία": 6040,
      "εφοδιασ": 6041,
      "παρέχουν": 6042,
      "οδηγεί": 6043,
      "βιώσιμη": 6044,
      "εκείνων": 6045,
      "λίων": 6046,
      "πονται": 6047,
      "ρεση": 6048,
      "διακή": 6049,
      "θαι": 6050,
      "τέλεσε": 6051,
      "ζητήσει": 6052,
      "εξασφάλ": 6053,
      "επιτρέπεται": 6054,
      "26": 6055,
      "Λευκορω": 6056,
      "κοινοτικών": 6057,
      "βουλευτής": 6058,
      "τλαν": 6059,
      "οφείλεται": 6060,
      "έδωσε": 6061,
      "ορισμένους": 6062,
      "θέσης": 6063,
      "Αι": 6064,
      "εξα": 6065,
      "οποίησης": 6066,
      "φιλόδοξ": 6067,
      "κατάλογο": 6068,
      "Καταρ": 6069,
      "ΚΟ": 6070,
      "Σχε": 6071,
      "Κυρίες": 6072,
      "Παρό": 6073,
      "ασή": 6074,
      "τούτο": 6075,
      "κατόπιν": 6076,
      "τήρησης": 6077,
      "βαίνει": 6078,
      "εφαρμοστεί": 6079,
      "τέτοιου": 6080,
      "29": 6081,
      "Κεντρικής": 6082,
      "γραμμή": 6083,
      "ισχύουν": 6084,
      "Κύ": 6085,
      "λασσα": 6086,
      "Είμαστε": 6087,
      "θεμελιωδών": 6088,
      "συντονισμό": 6089,
      "απειλή": 6090,
      "παράγραφο": 6091,
      "κατοί": 6092,
      "Καθ": 6093,
      "παραμείνει": 6094,
      "οδηγίες": 6095,
      "ιδε": 6096,
      "παραδοσια": 6097,
      "υφίστανται": 6098,
      "εκτι": 6099,
      "συμβιβασμό": 6100,
      "ξεκίνησε": 6101,
      "Ec": 6102,
      "ουσιαστική": 6103,
      "στερα": 6104,
      "βουλευτή": 6105,
      "διαπραγματευ": 6106,
      "σεξουαλ": 6107,
      "und": 6108,
      "ποιες": 6109,
      "παρέμβαση": 6110,
      "δήλωσε": 6111,
      "παρακαλώ": 6112,
      "κατάρτισης": 6113,
      "πέδιο": 6114,
      "φιλοδοξ": 6115,
      "τροφής": 6116,
      "υποθέσεις": 6117,
      "ενημερώ": 6118,
      "τιμώ": 6119,
      "καιρός": 6120,
      "Ασφάλ": 6121,
      "θησε": 6122,
      "ομιλία": 6123,
      "εξαρτάται": 6124,
      "αμφιβολία": 6125,
      "λαού": 6126,
      "χρόνος": 6127,
      "Ταμείου": 6128,
      "δισεκατομμύρια": 6129,
      "έλθει": 6130,
      "Ορισ": 6131,
      "λην": 6132,
      "δημοκράτες": 6133,
      "καταστήσει": 6134,
      "Δημοκρατίας": 6135,
      "τεκ": 6136,
      "εισο": 6137,
      "ευαισθη": 6138,
      "Τουρκίας": 6139,
      "τελευταίες": 6140,
      "μοια": 6141,
      "συνθηκών": 6142,
      "ζητά": 6143,
      "Βό": 6144,
      "τεχνολογία": 6145,
      "γώ": 6146,
      "διαφορο": 6147,
      "λακ": 6148,
      "διάρθρω": 6149,
      "ταχυ": 6150,
      "Επιτρόπου": 6151,
      "τύπων": 6152,
      "γενικές": 6153,
      "παρατήρηση": 6154,
      "Θεμάτων": 6155,
      "Υπουργών": 6156,
      "σιμες": 6157,
      "ποσοστ": 6158,
      "ΑΕ": 6159,
      "ψω": 6160,
      "προειδ": 6161,
      "ανησυχη": 6162,
      "αριασ": 6163,
      "SE": 6164,
      "εταιρειών": 6165,
      "Λαϊκού": 6166,
      "αφετέρου": 6167,
      "έκτακ": 6168,
      "παρουσιάζει": 6169,
      "κινδύνου": 6170,
      "βάλλουν": 6171,
      "Τρίτον": 6172,
      "θελου": 6173,
      "λογαριασ": 6174,
      "μορφές": 6175,
      "συγχρον": 6176,
      "ανεξάρ": 6177,
      "διατηρη": 6178,
      "ρικ": 6179,
      "σεών": 6180,
      "δυν": 6181,
      "κατέστη": 6182,
      "Χάρτη": 6183,
      "έντο": 6184,
      "ρεαλισ": 6185,
      "προηγουμένως": 6186,
      "λογισ": 6187,
      "κύκ": 6188,
      "χρονικό": 6189,
      "συνεδρι": 6190,
      "Ver": 6191,
      "βάλλονται": 6192,
      "καλλιέργ": 6193,
      "Κοσσυφοπέδιο": 6194,
      "αφενός": 6195,
      "μεταχείριση": 6196,
      "Παρ": 6197,
      "ώματα": 6198,
      "υποστήριξή": 6199,
      "Ρουμανία": 6200,
      "κατευθυντήριες": 6201,
      "ματικά": 6202,
      "αρχίσει": 6203,
      "σκοπ": 6204,
      "θάνα": 6205,
      "δημιουργήσουμε": 6206,
      "ενδεχόμενο": 6207,
      "τρόφι": 6208,
      "συμβάσεις": 6209,
      "οφείλει": 6210,
      "διαβουλ": 6211,
      "εξάλλου": 6212,
      "συντομότερο": 6213,
      "ond": 6214,
      "ζήτηση": 6215,
      "28": 6216,
      "Να": 6217,
      "συνε": 6218,
      "έρια": 6219,
      "εμπόδια": 6220,
      "Δικαστηρίου": 6221,
      "ουγκ": 6222,
      "ούλια": 6223,
      "βάρ": 6224,
      "ζων": 6225,
      "τριών": 6226,
      "απελευθέ": 6227,
      "Υπερ": 6228,
      "μέρα": 6229,
      "τέσσερις": 6230,
      "καθυστερή": 6231,
      "πνευ": 6232,
      "σχετική": 6233,
      "πτονται": 6234,
      "τημάτων": 6235,
      "χρόνως": 6236,
      "όρο": 6237,
      "χημ": 6238,
      "PT": 6239,
      "προσφύ": 6240,
      "εκτέλεση": 6241,
      "μοντέ": 6242,
      "μεγαλύτερες": 6243,
      "att": 6244,
      "διεθνών": 6245,
      "προσεγγ": 6246,
      "απλο": 6247,
      "επιλύ": 6248,
      "πέρασ": 6249,
      "ετη": 6250,
      "διεξή": 6251,
      "σύγκριση": 6252,
      "μεγάλων": 6253,
      "διεθνής": 6254,
      "οργανισμών": 6255,
      "μειονο": 6256,
      "Κροα": 6257,
      "λεπτομέ": 6258,
      "τιμω": 6259,
      "κούν": 6260,
      "ούνιο": 6261,
      "συντάκ": 6262,
      "διαχει": 6263,
      "κους": 6264,
      "συρ": 6265,
      "ένταξης": 6266,
      "φοβ": 6267,
      "οδ": 6268,
      "εξάλει": 6269,
      "ίδρυ": 6270,
      "αντικει": 6271,
      "μπα": 6272,
      "επενδυ": 6273,
      "καταπολε": 6274,
      "δυναμικό": 6275,
      "AL": 6276,
      "ρουν": 6277,
      "ευρεία": 6278,
      "φυγες": 6279,
      "πραγμά": 6280,
      "ειδικές": 6281,
      "NL": 6282,
      "Li": 6283,
      "απαί": 6284,
      "συμμετοχής": 6285,
      "γχά": 6286,
      "τρίτων": 6287,
      "ημερομην": 6288,
      "νομικά": 6289,
      "απαντήσεις": 6290,
      "λίγα": 6291,
      "προφανές": 6292,
      "ανεργία": 6293,
      "λετε": 6294,
      "ενεργειακής": 6295,
      "τζέντα": 6296,
      "γλωσσ": 6297,
      "επιπτώσεων": 6298,
      "εσε": 6299,
      "ματικές": 6300,
      "πρότυπο": 6301,
      "Σύμβαση": 6302,
      "ματικό": 6303,
      "μολογ": 6304,
      "μείωσης": 6305,
      "έργων": 6306,
      "εκπομπές": 6307,
      "τισμός": 6308,
      "προτι": 6309,
      "θελω": 6310,
      "μονες": 6311,
      "συνεδρίασης": 6312,
      "Προϋπολογισμών": 6313,
      "1995": 6314,
      "απομακ": 6315,
      "περιστα": 6316,
      "ριστη": 6317,
      "Μόνο": 6318,
      "συντελ": 6319,
      "περισσότεροι": 6320,
      "195": 6321,
      "Δημοκρατών": 6322,
      "ότερο": 6323,
      "διαρθρωτικών": 6324,
      "ανάγκης": 6325,
      "φορέ": 6326,
      "κοινές": 6327,
      "τερου": 6328,
      "Τράπεζα": 6329,
      "στενά": 6330,
      "Σερ": 6331,
      "ελά": 6332,
      "ραβ": 6333,
      "ευρωπαίους": 6334,
      "συναίνεση": 6335,
      "ικανοποίηση": 6336,
      "Ανατολή": 6337,
      "αρμόδια": 6338,
      "ton": 6339,
      "ish": 6340,
      "παραπάνω": 6341,
      "ανισ": 6342,
      "εκτιμή": 6343,
      "στόχου": 6344,
      "ord": 6345,
      "ψα": 6346,
      "συναδέλφου": 6347,
      "97": 6348,
      "σθε": 6349,
      "παλι": 6350,
      "μιά": 6351,
      "As": 6352,
      "ολού": 6353,
      "ευθύνης": 6354,
      "συμφωνούμε": 6355,
      "τεχνολογίας": 6356,
      "δολοφον": 6357,
      "τομ": 6358,
      "εδαφ": 6359,
      "έλεγχος": 6360,
      "Fr": 6361,
      "Υγ": 6362,
      "άντια": 6363,
      "θεωρείται": 6364,
      "πρώτον": 6365,
      "ζητούν": 6366,
      "θρο": 6367,
      "επικρά": 6368,
      "Ίσ": 6369,
      "τελων": 6370,
      "Ένας": 6371,
      "σιω": 6372,
      "Πολιτειών": 6373,
      "Br": 6374,
      "αίτηση": 6375,
      "τούς": 6376,
      "λούν": 6377,
      "προσεκτικά": 6378,
      "επιχειρη": 6379,
      "pe": 6380,
      "έργου": 6381,
      "υνση": 6382,
      "ast": 6383,
      "eb": 6384,
      "Μάλ": 6385,
      "ξεπε": 6386,
      "ένωση": 6387,
      "εκσυγχρον": 6388,
      "κατανομή": 6389,
      "ιδέες": 6390,
      "υφίσταται": 6391,
      "Σχετικά": 6392,
      "τρόφιμα": 6393,
      "ανταποκρι": 6394,
      "ανταλλαγή": 6395,
      "μμαχ": 6396,
      "εγκαταλεί": 6397,
      "Πρασ": 6398,
      "αντίθετα": 6399,
      "ζώνης": 6400,
      "εργασιών": 6401,
      "Λου": 6402,
      "πληθυσμό": 6403,
      "αξιόπισ": 6404,
      "διμε": 6405,
      "μεταβα": 6406,
      "δημοσιονομική": 6407,
      "αλιεία": 6408,
      "αγρότες": 6409,
      "αριθμού": 6410,
      "χαρ": 6411,
      "συμμετεί": 6412,
      "σταθεί": 6413,
      "θηκα": 6414,
      "σσο": 6415,
      "εκπλή": 6416,
      "εφαρμόζεται": 6417,
      "προσφέρουν": 6418,
      "Ιράκ": 6419,
      "ματι": 6420,
      "ασύλου": 6421,
      "ταρα": 6422,
      "προέρχονται": 6423,
      "είων": 6424,
      "βελτιωθεί": 6425,
      "κατοικ": 6426,
      "εμπορικές": 6427,
      "ρμον": 6428,
      "διάλογος": 6429,
      "ηγέ": 6430,
      "ελπίζουμε": 6431,
      "Ισραηλ": 6432,
      "Πρασίνων": 6433,
      "αέ": 6434,
      "αναφέρονται": 6435,
      "ουσίες": 6436,
      "πεδίου": 6437,
      "διατη": 6438,
      "τέθηκε": 6439,
      "συγκρό": 6440,
      "υποστηρίζουμε": 6441,
      "αναπό": 6442,
      "κανό": 6443,
      "άδεια": 6444,
      "Δεκέμβριο": 6445,
      "ah": 6446,
      "πρόσφατη": 6447,
      "πέρασμα": 6448,
      "ff": 6449,
      "ώνοντας": 6450,
      "ακόλου": 6451,
      "νεο": 6452,
      "συζητάμε": 6453,
      "ενισχύσεων": 6454,
      "αδυνα": 6455,
      "εργαζόμενους": 6456,
      "λαβαν": 6457,
      "περιλαμβάνονται": 6458,
      "πράτ": 6459,
      "ασκεί": 6460,
      "βοηθήσουμε": 6461,
      "απαραίτητες": 6462,
      "συνεκ": 6463,
      "ενιαίο": 6464,
      "συνολική": 6465,
      "κατασκευασ": 6466,
      "ενάντια": 6467,
      "βλέπω": 6468,
      "Τρο": 6469,
      "θανά": 6470,
      "ποιον": 6471,
      "θρου": 6472,
      "περιφερειακή": 6473,
      "κλει": 6474,
      "ρύπαν": 6475,
      "εφικ": 6476,
      "πρακτικών": 6477,
      "Χαιρετί": 6478,
      "Ber": 6479,
      "ain": 6480,
      "ιταλ": 6481,
      "προκάλ": 6482,
      "Διαμεσολαβη": 6483,
      "ανδρών": 6484,
      "ενιαίας": 6485,
      "εκτίμηση": 6486,
      "Εμπο": 6487,
      "φτώχεια": 6488,
      "φυγή": 6489,
      "απλού": 6490,
      "πηγή": 6491,
      "oy": 6492,
      "δικαιοσύνη": 6493,
      "Νέ": 6494,
      "δόθηκε": 6495,
      "πολέμου": 6496,
      "συνεχώς": 6497,
      "κόσμος": 6498,
      "περιφερειών": 6499,
      "σιτεχν": 6500,
      "ini": 6501,
      "λαμβάνω": 6502,
      "μεγάλης": 6503,
      "προχωρήσει": 6504,
      "ναρκωτικών": 6505,
      "ελευθέρων": 6506,
      "Συμμαχ": 6507,
      "παράσχει": 6508,
      "μαθη": 6509,
      "διαπραγμά": 6510,
      "θάν": 6511,
      "μεων": 6512,
      "επεσήμα": 6513,
      "AC": 6514,
      "land": 6515,
      "εμποδ": 6516,
      "νωμένες": 6517,
      "είου": 6518,
      "υπέβαλε": 6519,
      "επειγ": 6520,
      "γράφου": 6521,
      "διατάξεων": 6522,
      "καταπολέμησης": 6523,
      "οκ": 6524,
      "πλανή": 6525,
      "απευθύν": 6526,
      "ρειες": 6527,
      "διαβί": 6528,
      "εμπιστοσύνης": 6529,
      "αποφευ": 6530,
      "εκλογών": 6531,
      "πληρωμών": 6532,
      "φθηκε": 6533,
      "Καταρχάς": 6534,
      "πρωτό": 6535,
      "νομοθετική": 6536,
      "έδα": 6537,
      "δόσεις": 6538,
      "δημοκρατικό": 6539,
      "διαδραματίσει": 6540,
      "ρισμός": 6541,
      "ek": 6542,
      "Πολωνία": 6543,
      "90": 6544,
      "επιδεί": 6545,
      "κάποιον": 6546,
      "παραβιάσεις": 6547,
      "προχω": 6548,
      "συμφών": 6549,
      "διπλωμα": 6550,
      "Ουκρανία": 6551,
      "βρούμε": 6552,
      "εναρμον": 6553,
      "ολοκλήρωσης": 6554,
      "θρώ": 6555,
      "ler": 6556,
      "πακέ": 6557,
      "ανακοιν": 6558,
      "αρχική": 6559,
      "μάτι": 6560,
      "υπονο": 6561,
      "στιγμής": 6562,
      "συγχαί": 6563,
      "αποτυχ": 6564,
      "εξασφαλίσουμε": 6565,
      "θουμε": 6566,
      "αύξησης": 6567,
      "ανεξαρτησία": 6568,
      "98": 6569,
      "λέξη": 6570,
      "κονδύλια": 6571,
      "μεταρρύθμισης": 6572,
      "τρέχουσα": 6573,
      "απόρ": 6574,
      "Αφγαν": 6575,
      "New": 6576,
      "Ίσως": 6577,
      "Βασι": 6578,
      "ΑΚΕ": 6579,
      "ώθηκαν": 6580,
      "καπ": 6581,
      "ταμείων": 6582,
      "96": 6583,
      "Εκεί": 6584,
      "Διακυβερνη": 6585,
      "συμπεριλαμβανομένης": 6586,
      "αντιπολί": 6587,
      "RO": 6588,
      "λλά": 6589,
      "φάρ": 6590,
      "περιμένουμε": 6591,
      "εννο": 6592,
      "τοποθε": 6593,
      "ριλίου": 6594,
      "Σουηδία": 6595,
      "κατηγορία": 6596,
      "σύνα": 6597,
      "ith": 6598,
      "δεύτερον": 6599,
      "Χριστια": 6600,
      "νέοι": 6601,
      "Αί": 6602,
      "σύγκλι": 6603,
      "άσκηση": 6604,
      "μβούργ": 6605,
      "θήκαμε": 6606,
      "ρής": 6607,
      "παρούσας": 6608,
      "φαινόμενο": 6609,
      "δάν": 6610,
      "κινδυν": 6611,
      "προεδρία": 6612,
      "Ιουλίου": 6613,
      "πετύ": 6614,
      "συνήθως": 6615,
      "τησαν": 6616,
      "συνάντηση": 6617,
      "εσης": 6618,
      "υψηλής": 6619,
      "διαρκώς": 6620,
      "ud": 6621,
      "Τού": 6622,
      "Co": 6623,
      "van": 6624,
      "ονεκτήματα": 6625,
      "σπί": 6626,
      "καθορισμό": 6627,
      "ey": 6628,
      "μπά": 6629,
      "τέτοιες": 6630,
      "εκείνα": 6631,
      "αναμφίβολα": 6632,
      "ευχαριστίες": 6633,
      "κοινωνικού": 6634,
      "Εξάλλου": 6635,
      "κούς": 6636,
      "παλλή": 6637,
      "ζωο": 6638,
      "διαφορά": 6639,
      "πειρα": 6640,
      "λέω": 6641,
      "ήσαμε": 6642,
      "194": 6643,
      "Απριλίου": 6644,
      "οικοδόμηση": 6645,
      "εθελον": 6646,
      "Ρωσίας": 6647,
      "γχάν": 6648,
      "μείζ": 6649,
      "απαιτούν": 6650,
      "ανάλογα": 6651,
      "επόμενα": 6652,
      "πλευράς": 6653,
      "αξιοπιστία": 6654,
      "ργάν": 6655,
      "παραμένουν": 6656,
      "Υγείας": 6657,
      "όμενου": 6658,
      "καταναλωτή": 6659,
      "παρακολούθησης": 6660,
      "ρυνση": 6661,
      "μήνα": 6662,
      "παρατηρη": 6663,
      "χρησιμοποιηθεί": 6664,
      "ανησυ": 6665,
      "σχημα": 6666,
      "ενισχυθεί": 6667,
      "προσθέσω": 6668,
      "τρομοκρατία": 6669,
      "αφι": 6670,
      "δώσω": 6671,
      "ξανα": 6672,
      "ομιλητές": 6673,
      "μπόρε": 6674,
      "καθιέρωση": 6675,
      "τηλ": 6676,
      "2013": 6677,
      "δίω": 6678,
      "Μο": 6679,
      "ευελιξία": 6680,
      "παρουσίασε": 6681,
      "ενσωμάτωση": 6682,
      "προορίζ": 6683,
      "ταθεί": 6684,
      "καλές": 6685,
      "παγκόσμιας": 6686,
      "Αφρικής": 6687,
      "Θέλουμε": 6688,
      "υπαλλή": 6689,
      "ζήτησε": 6690,
      "διαφθο": 6691,
      "αερίου": 6692,
      "Ευρω": 6693,
      "συνταξιο": 6694,
      "επικουρικότητας": 6695,
      "ετήσια": 6696,
      "υπερά": 6697,
      "ry": 6698,
      "τούσε": 6699,
      "Προεδρεύων": 6700,
      "ρίζομαι": 6701,
      "κανονισμούς": 6702,
      "κεκ": 6703,
      "Πιστεύ": 6704,
      "δίκτυα": 6705,
      "Στό": 6706,
      "ξεν": 6707,
      "απόλυτη": 6708,
      "τροποποιήσεις": 6709,
      "Μία": 6710,
      "σους": 6711,
      "υποψηφ": 6712,
      "περιορισμό": 6713,
      "φωνή": 6714,
      "δημοσιονομικές": 6715,
      "ουγκοσ": 6716,
      "εταιρεία": 6717,
      "θειών": 6718,
      "70": 6719,
      "λαών": 6720,
      "Κυριου": 6721,
      "Δεδομένου": 6722,
      "διατύπωση": 6723,
      "λαϊκ": 6724,
      "Συμ": 6725,
      "συμβάλλει": 6726,
      "περίπλο": 6727,
      "αγαθ": 6728,
      "ματικών": 6729,
      "ερωτήματα": 6730,
      "πτεται": 6731,
      "καυσί": 6732,
      "χαίρομαι": 6733,
      "πόσον": 6734,
      "νόημα": 6735,
      "ock": 6736,
      "ριον": 6737,
      "καθυστέρηση": 6738,
      "άνδ": 6739,
      "ίδιοι": 6740,
      "εκλεγ": 6741,
      "τυχε": 6742,
      "δίου": 6743,
      "ασθέ": 6744,
      "συγκέντ": 6745,
      "δεικνύουν": 6746,
      "Γνωρίζω": 6747,
      "αξιότιμοι": 6748,
      "ανέφερα": 6749,
      "Αφγανιστάν": 6750,
      "ατ": 6751,
      "περασμένο": 6752,
      "ύδα": 6753,
      "παίθρου": 6754,
      "βούργ": 6755,
      "ζώα": 6756,
      "χαμε": 6757,
      "ισβή": 6758,
      "ανθρώπινη": 6759,
      "ιω": 6760,
      "σχεδίων": 6761,
      "κερδο": 6762,
      "RE": 6763,
      "ουγκοσλαβ": 6764,
      "νάμε": 6765,
      "σουη": 6766,
      "εγγυήσεις": 6767,
      "αυτοκίνη": 6768,
      "δείχνουν": 6769,
      "στρέφ": 6770,
      "αποδει": 6771,
      "εξαίρεση": 6772,
      "καύ": 6773,
      "ory": 6774,
      "μολονότι": 6775,
      "Ευρωπαίοι": 6776,
      "Φεβρουαρίου": 6777,
      "επιστήσω": 6778,
      "δρόμους": 6779,
      "Οφεί": 6780,
      "σελί": 6781,
      "μελλοντικές": 6782,
      "καταλήξουμε": 6783,
      "σέβ": 6784,
      "θου": 6785,
      "Στρασ": 6786,
      "τασή": 6787,
      "τέρων": 6788,
      "γυπ": 6789,
      "μεταναστών": 6790,
      "Στρασβούργ": 6791,
      "ήσεων": 6792,
      "ότερες": 6793,
      "Πορτογαλία": 6794,
      "μειωθεί": 6795,
      "γνώση": 6796,
      "απαραίτητα": 6797,
      "Πέμπ": 6798,
      "περιλαμβάνουν": 6799,
      "ip": 6800,
      "υπάρξουν": 6801,
      "αρμοδιο": 6802,
      "ue": 6803,
      "Ταυτό": 6804,
      "δράσεων": 6805,
      "εκείνο": 6806,
      "μνη": 6807,
      "επιμέρους": 6808,
      "αρμοδιοτήτων": 6809,
      "έθεσε": 6810,
      "απαιτούμε": 6811,
      "φυσικό": 6812,
      "τρίτη": 6813,
      "Sh": 6814,
      "σισε": 6815,
      "ούσαν": 6816,
      "τέρα": 6817,
      "ψήφου": 6818,
      "τοπικές": 6819,
      "εκμεταλλευ": 6820,
      "τιν": 6821,
      "πιστώσεις": 6822,
      "αρκεί": 6823,
      "ευθυ": 6824,
      "λησ": 6825,
      "έχοντας": 6826,
      "γεωργική": 6827,
      "είστε": 6828,
      "θαυ": 6829,
      "προσφύγων": 6830,
      "λησε": 6831,
      "συνταγμα": 6832,
      "2012": 6833,
      "αίρομαι": 6834,
      "λεπτομέρειες": 6835,
      "παρόμοια": 6836,
      "Μπορούμε": 6837,
      "άσουμε": 6838,
      "βέβαιος": 6839,
      "συνδέεται": 6840,
      "κλ": 6841,
      "εφαρμόζονται": 6842,
      "Διο": 6843,
      "τέθηκαν": 6844,
      "ρειο": 6845,
      "απαιτούνται": 6846,
      "νόμισμα": 6847,
      "κεντρο": 6848,
      "Ταυτόχρονα": 6849,
      "σεβασμού": 6850,
      "έφ": 6851,
      "άντα": 6852,
      "δίκιο": 6853,
      "πές": 6854,
      "πρόθεση": 6855,
      "επικύ": 6856,
      "πρόσφυγες": 6857,
      "δικαιώματος": 6858,
      "Car": 6859,
      "Εφ": 6860,
      "προσώπων": 6861,
      "παρουσιάσει": 6862,
      "Αμερική": 6863,
      "αντικατα": 6864,
      "ανεξάρτητα": 6865,
      "άμυ": 6866,
      "πολλα": 6867,
      "αντικειμεν": 6868,
      "ly": 6869,
      "τάς": 6870,
      "πόλεμο": 6871,
      "συλο": 6872,
      "Κάτω": 6873,
      "θεωρηθεί": 6874,
      "απώλ": 6875,
      "ρίτερα": 6876,
      "κοινών": 6877,
      "ΓΠ": 6878,
      "πρόεδρο": 6879,
      "ρωσ": 6880,
      "Ουγγ": 6881,
      "νομικές": 6882,
      "συναπό": 6883,
      "Συνέδ": 6884,
      "πλεον": 6885,
      "SV": 6886,
      "Τελ": 6887,
      "Χαίρομαι": 6888,
      "πλανήτη": 6889,
      "νοδο": 6890,
      "δείξεις": 6891,
      "υποψήφιες": 6892,
      "ελεύθερης": 6893,
      "θον": 6894,
      "νται": 6895,
      "συστημα": 6896,
      "λειτουργούν": 6897,
      "διενεργ": 6898,
      "συμμορφ": 6899,
      "Έκθεση": 6900,
      "Ενώ": 6901,
      "τέταρ": 6902,
      "επιχείρηση": 6903,
      "τέσσερα": 6904,
      "Συνέδριο": 6905,
      "περικο": 6906,
      "ακολουθεί": 6907,
      "χώρου": 6908,
      "στινια": 6909,
      "τεχνολογίες": 6910,
      "βιβλ": 6911,
      "παραγωγούς": 6912,
      "δημοσιεύ": 6913,
      "διαβά": 6914,
      "τήθηκε": 6915,
      "αντιμέτω": 6916,
      "νόμου": 6917,
      "έδρα": 6918,
      "ποί": 6919,
      "διατεθει": 6920,
      "Διεθνούς": 6921,
      "σημαντικότερο": 6922,
      "ust": 6923,
      "Εμπορίου": 6924,
      "καλέ": 6925,
      "εργαζόμενοι": 6926,
      "ρωτήσω": 6927,
      "σύνδεση": 6928,
      "έδαφος": 6929,
      "μένεται": 6930,
      "εταιρική": 6931,
      "γράφων": 6932,
      "γεωργίας": 6933,
      "κυρι": 6934,
      "εγκλήματος": 6935,
      "Χά": 6936,
      "φως": 6937,
      "παίρ": 6938,
      "τακτική": 6939,
      "ΝΑ": 6940,
      "καλω": 6941,
      "τεχνική": 6942,
      "υποστήριξης": 6943,
      "επωφελ": 6944,
      "δικών": 6945,
      "Κεντρική": 6946,
      "ατομ": 6947,
      "tern": 6948,
      "Οικονομικής": 6949,
      "λαμβάνουμε": 6950,
      "γεωγραφ": 6951,
      "μικρών": 6952,
      "Αναφέ": 6953,
      "θετικές": 6954,
      "αναφοράς": 6955,
      "φάρμα": 6956,
      "πιθανότητα": 6957,
      "αρμόδι": 6958,
      "δημα": 6959,
      "γνώμης": 6960,
      "νομίσ": 6961,
      "εξεύ": 6962,
      "εχθ": 6963,
      "ίκαι": 6964,
      "λείου": 6965,
      "σων": 6966,
      "προηγούμενο": 6967,
      "ξεκάθαρα": 6968,
      "ζητεί": 6969,
      "λίγες": 6970,
      "συνεχίσουν": 6971,
      "σχόλια": 6972,
      "FI": 6973,
      "μάρ": 6974,
      "συντονισμού": 6975,
      "αποτρέ": 6976,
      "επικυ": 6977,
      "Bl": 6978,
      "ρισε": 6979,
      "απαλλαγής": 6980,
      "δαι": 6981,
      "ειακή": 6982,
      "ορισμό": 6983,
      "Βο": 6984,
      "ξέρ": 6985,
      "σημεί": 6986,
      "μηθεί": 6987,
      "ary": 6988,
      "ενισχύσει": 6989,
      "διαμαρτυ": 6990,
      "ποίησε": 6991,
      "παραδείγματα": 6992,
      "οικονομίες": 6993,
      "μαχ": 6994,
      "πες": 6995,
      "μπορείτε": 6996,
      "Επικ": 6997,
      "Νότια": 6998,
      "Πο": 6999,
      "κλω": 7000,
      "ικότητα": 7001,
      "Κοπε": 7002,
      "χθες": 7003,
      "ρατσ": 7004,
      "προσπαθήσουμε": 7005,
      "Κοπεγχά": 7006,
      "Αμερικής": 7007,
      "Mc": 7008,
      "καλο": 7009,
      "οργανώσεων": 7010,
      "βελτιώσεις": 7011,
      "εμπορικών": 7012,
      "άνδρες": 7013,
      "επιθέσεις": 7014,
      "πολιτικούς": 7015,
      "σημαντικός": 7016,
      "εκατον": 7017,
      "προδιαγραφές": 7018,
      "λεις": 7019,
      "εθνικής": 7020,
      "πιστώσεων": 7021,
      "Οργανισμού": 7022,
      "πυλώ": 7023,
      "δικαιολογη": 7024,
      "φτωχ": 7025,
      "ελπίδα": 7026,
      "αποφάσισε": 7027,
      "απόδοση": 7028,
      "ΗΕ": 7029,
      "λυπη": 7030,
      "Γιουγκοσλαβ": 7031,
      "σιες": 7032,
      "επιτρέπουν": 7033,
      "ευρεσιτεχν": 7034,
      "μειονοτήτων": 7035,
      "άλω": 7036,
      "δημόσιο": 7037,
      "βου": 7038,
      "ευημερία": 7039,
      "mer": 7040,
      "ημερί": 7041,
      "προσδοκίες": 7042,
      "ΜΚΟ": 7043,
      "αναφερθεί": 7044,
      "διαρθρωτικά": 7045,
      "Ιαπ": 7046,
      "πρόθυ": 7047,
      "σσονται": 7048,
      "επιβατών": 7049,
      "επειγόντως": 7050,
      "Αλι": 7051,
      "προετοιμασία": 7052,
      "Μι": 7053,
      "ανήκει": 7054,
      "χορηγ": 7055,
      "κεφάλαιο": 7056,
      "δίων": 7057,
      "επτά": 7058,
      "προσέγγισης": 7059,
      "περιφέρεια": 7060,
      "λέν": 7061,
      "σματος": 7062,
      "λαίων": 7063,
      "σκι": 7064,
      "πηση": 7065,
      "εκφράζει": 7066,
      "ανθρωπιστική": 7067,
      "κτα": 7068,
      "γλώσσες": 7069,
      "ηλικία": 7070,
      "ner": 7071,
      "μάχη": 7072,
      "αξιών": 7073,
      "ial": 7074,
      "τουρκ": 7075,
      "σαφέ": 7076,
      "σκοπεί": 7077,
      "ψηφοφο": 7078,
      "Μπορώ": 7079,
      "ποσά": 7080,
      "Sp": 7081,
      "co": 7082,
      "μανίας": 7083,
      "καταρτί": 7084,
      "ριστούν": 7085,
      "Αμερικαν": 7086,
      "οποιον": 7087,
      "αίθουσα": 7088,
      "συνάδελφος": 7089,
      "πολιτισμ": 7090,
      "ήμουν": 7091,
      "συμπέρασμα": 7092,
      "επιλογές": 7093,
      "αντιπροσωπεία": 7094,
      "πληροφόρησης": 7095,
      "ότητές": 7096,
      "ιστές": 7097,
      "Θά": 7098,
      "μεση": 7099,
      "βάλουν": 7100,
      "ολοκληρωμένη": 7101,
      "δαπ": 7102,
      "οτήτων": 7103,
      "υπά": 7104,
      "επαναλάβω": 7105,
      "εκμετάλλευση": 7106,
      "μοντέλο": 7107,
      "καθέ": 7108,
      "φός": 7109,
      "στικά": 7110,
      "τοπτ": 7111,
      "ονότητα": 7112,
      "κος": 7113,
      "έστε": 7114,
      "αρχηγ": 7115,
      "εμπορίας": 7116,
      "δημοσίων": 7117,
      "Βασιλείου": 7118,
      "υπογρά": 7119,
      "επωφελη": 7120,
      "συνδια": 7121,
      "κινητο": 7122,
      "ib": 7123,
      "πέρ": 7124,
      "κτην": 7125,
      "εκπληρώ": 7126,
      "επικρί": 7127,
      "αποκλεί": 7128,
      "τίτλο": 7129,
      "φθά": 7130,
      "μανση": 7131,
      "διαφορετικό": 7132,
      "άσυλο": 7133,
      "Com": 7134,
      "Εργ": 7135,
      "ζητήματος": 7136,
      "λησης": 7137,
      "θέτω": 7138,
      "καταγγελ": 7139,
      "δώσουν": 7140,
      "κατανάλωσης": 7141,
      "ταξι": 7142,
      "ισαν": 7143,
      "ivers": 7144,
      "σύνδεσης": 7145,
      "ουσιών": 7146,
      "νούνται": 7147,
      "εξάλειψη": 7148,
      "διακυβέρνηση": 7149,
      "χρειαστεί": 7150,
      "τερης": 7151,
      "εξαλ": 7152,
      "βαν": 7153,
      "εκπροσωπ": 7154,
      "ισχύος": 7155,
      "πολίτη": 7156,
      "σύγκρουση": 7157,
      "συμπεριφορά": 7158,
      "προσαρμογή": 7159,
      "κατηγορίες": 7160,
      "ρότητας": 7161,
      "επαρκώς": 7162,
      "ελών": 7163,
      "μίζω": 7164,
      "μούμε": 7165,
      "Μέση": 7166,
      "χες": 7167,
      "by": 7168,
      "υδά": 7169,
      "αναμένεται": 7170,
      "πάση": 7171,
      "προέλευσης": 7172,
      "στου": 7173,
      "φωνα": 7174,
      "επισημα": 7175,
      "αξιοπρέπει": 7176,
      "μεσογ": 7177,
      "επιφυλά": 7178,
      "Eυρωπαϊκ": 7179,
      "παρεμβάσεις": 7180,
      "Ού": 7181,
      "ανάκαμ": 7182,
      "κεφάλαια": 7183,
      "ευρέ": 7184,
      "Κατ": 7185,
      "στρατιωτική": 7186,
      "ώθηση": 7187,
      "κόμμα": 7188,
      "χήν": 7189,
      "end": 7190,
      "Διεθν": 7191,
      "εκει": 7192,
      "περιπτ": 7193,
      "σχεδιά": 7194,
      "δημοσί": 7195,
      "ευρωπαίοι": 7196,
      "EC": 7197,
      "υποβληθεί": 7198,
      "τίποτε": 7199,
      "καθήκοντα": 7200,
      "ελευθέρωση": 7201,
      "σύνολό": 7202,
      "σσει": 7203,
      "μάκων": 7204,
      "εξασφαλίσει": 7205,
      "Μέχ": 7206,
      "φόρους": 7207,
      "περιβαλλοντική": 7208,
      "δημόσιων": 7209,
      "σκοπούς": 7210,
      "τόν": 7211,
      "Προκειμένου": 7212,
      "ανήκουν": 7213,
      "απαίτηση": 7214,
      "ΝΑΤΟ": 7215,
      "σθενα": 7216,
      "κίνησης": 7217,
      "Περιφερ": 7218,
      "εργάζεται": 7219,
      "Διάσκεψης": 7220,
      "az": 7221,
      "ΕΝ": 7222,
      "επιρροή": 7223,
      "ies": 7224,
      "ρείας": 7225,
      "κινητικότητα": 7226,
      "εξωτερικό": 7227,
      "Ιούνιο": 7228,
      "σχετικές": 7229,
      "ive": 7230,
      "θαλάσ": 7231,
      "προτύπων": 7232,
      "αυτης": 7233,
      "συνδρο": 7234,
      "καθολ": 7235,
      "διευκόλ": 7236,
      "καταστήσουμε": 7237,
      "χέρια": 7238,
      "ρός": 7239,
      "βέλ": 7240,
      "ζημί": 7241,
      "επιβαρ": 7242,
      "άρτηση": 7243,
      "διάγραμμα": 7244,
      "μηχανισμό": 7245,
      "Ηνωμένο": 7246,
      "δυνάμεων": 7247,
      "Δύ": 7248,
      "ισότητας": 7249,
      "γραψε": 7250,
      "ανεπ": 7251,
      "θέτουν": 7252,
      "hel": 7253,
      "ευάλω": 7254,
      "αντίδραση": 7255,
      "ηλι": 7256,
      "ωμένη": 7257,
      "συνοδεύ": 7258,
      "λύπη": 7259,
      "σκέψη": 7260,
      "Van": 7261,
      "τεθούν": 7262,
      "ρίσουν": 7263,
      "πολιτικοί": 7264,
      "βασιλ": 7265,
      "κηρύ": 7266,
      "αυτοκινή": 7267,
      "αμοιβαία": 7268,
      "μήπως": 7269,
      "αντικατοπτ": 7270,
      "Βουλγαρία": 7271,
      "σταματήσει": 7272,
      "πιέσεις": 7273,
      "λόγοι": 7274,
      "καταδικ": 7275,
      "Λουξε": 7276,
      "σκα": 7277,
      "ημερομηνία": 7278,
      "les": 7279,
      "εκείνοι": 7280,
      "βραβ": 7281,
      "ψηφίσαμε": 7282,
      "φαντα": 7283,
      "συνέχιση": 7284,
      "Κάθε": 7285,
      "ιακή": 7286,
      "εξασφάλιση": 7287,
      "Τό": 7288,
      "Βιρ": 7289,
      "προβεί": 7290,
      "Bro": 7291,
      "πιστεύει": 7292,
      "εκπροσώπους": 7293,
      "ρώς": 7294,
      "μακροπρόθεσμα": 7295,
      "έστω": 7296,
      "ορίζει": 7297,
      "35": 7298,
      "φαλ": 7299,
      "κοινοβουλευτική": 7300,
      "αποσκοπεί": 7301,
      "συμβάσεων": 7302,
      "κεφαλαίων": 7303,
      "κοινοβούλιο": 7304,
      "κληρονομ": 7305,
      "εξυπηρε": 7306,
      "ανθρώπου": 7307,
      "ενθαρρύνει": 7308,
      "συνδυασμό": 7309,
      "τεράστιο": 7310,
      "περιπτώσει": 7311,
      "31": 7312,
      "καθίσταται": 7313,
      "τηλεοπ": 7314,
      "tion": 7315,
      "Φιν": 7316,
      "Ρομά": 7317,
      "παρόλο": 7318,
      "πιθανό": 7319,
      "προφορική": 7320,
      "pp": 7321,
      "ωρα": 7322,
      "αποζημί": 7323,
      "υπηρεσίας": 7324,
      "επιδει": 7325,
      "απλή": 7326,
      "έλικ": 7327,
      "περιλαμβανο": 7328,
      "δίδει": 7329,
      "εγγύηση": 7330,
      "ελέγχους": 7331,
      "οδήγησε": 7332,
      "Εγώ": 7333,
      "πούν": 7334,
      "ονγκ": 7335,
      "πλει": 7336,
      "φαί": 7337,
      "κέντρο": 7338,
      "ork": 7339,
      "υπήρξαν": 7340,
      "δεκαετία": 7341,
      "Μέχρι": 7342,
      "πρότασή": 7343,
      "υψε": 7344,
      "σκέψεις": 7345,
      "διακυβέρνησης": 7346,
      "Υποστηρίζω": 7347,
      "διαπί": 7348,
      "αναρω": 7349,
      "δημοσιονομικών": 7350,
      "Μεγ": 7351,
      "καλλιεργ": 7352,
      "αντιπροσωπεύει": 7353,
      "φορέων": 7354,
      "φύση": 7355,
      "εισοδή": 7356,
      "ευέλικ": 7357,
      "επιτροπές": 7358,
      "ετησίως": 7359,
      "χθηκαν": 7360,
      "τελει": 7361,
      "τίστως": 7362,
      "ριακή": 7363,
      "σαφην": 7364,
      "Σι": 7365,
      "παραβίαση": 7366,
      "μέσου": 7367,
      "ρώνεται": 7368,
      "ενισχύσουμε": 7369,
      "Λουξεμβούργ": 7370,
      "άστηκε": 7371,
      "επιστολή": 7372,
      "σταθερή": 7373,
      "ταχεία": 7374,
      "Ασφάλειας": 7375,
      "τώνται": 7376,
      "επιτελ": 7377,
      "ορθή": 7378,
      "προσχώρηση": 7379,
      "Ακόμη": 7380,
      "τροποποιη": 7381,
      "επικοινωνιών": 7382,
      "συνεχιστεί": 7383,
      "αντίθετο": 7384,
      "Τύ": 7385,
      "στει": 7386,
      "ραμε": 7387,
      "διάκριση": 7388,
      "συμφωνεί": 7389,
      "εμπί": 7390,
      "απαντήσω": 7391,
      "Θεμελι": 7392,
      "Βιο": 7393,
      "επισκέ": 7394,
      "πετρελαίου": 7395,
      "ύψους": 7396,
      "νερό": 7397,
      "σοι": 7398,
      "επίκεντρο": 7399,
      "μικρομεσαίες": 7400,
      "ΟΗΕ": 7401,
      "υσι": 7402,
      "νωρίτερα": 7403,
      "έλεγα": 7404,
      "Καθώς": 7405,
      "σκεπ": 7406,
      "βιβά": 7407,
      "ανταγωνιστικότητας": 7408,
      "ρικές": 7409,
      "λογικά": 7410,
      "τύχη": 7411,
      "En": 7412,
      "άνοιγμα": 7413,
      "ονομά": 7414,
      "προωθήσει": 7415,
      "Θέμα": 7416,
      "ουσιαστικό": 7417,
      "φέρεται": 7418,
      "αποκατάσταση": 7419,
      "ζητήσουμε": 7420,
      "κόμματα": 7421,
      "Ινδία": 7422,
      "μεθόδους": 7423,
      "αποφασίσει": 7424,
      "θεσμικό": 7425,
      "βρεθεί": 7426,
      "ψηφίσματα": 7427,
      "ενημερω": 7428,
      "δηλώσω": 7429,
      "τράπεζες": 7430,
      "περιορισμούς": 7431,
      "καυσίμων": 7432,
      "τιών": 7433,
      "καλύτερες": 7434,
      "ικανοποίη": 7435,
      "κατανάλωση": 7436,
      "τροπής": 7437,
      "σκη": 7438,
      "μεταρρυθμίσεων": 7439,
      "Νομικών": 7440,
      "εκμετάλλευσης": 7441,
      "κρε": 7442,
      "συνεχίζει": 7443,
      "προτείνεται": 7444,
      "δικού": 7445,
      "άγουν": 7446,
      "διατηρήσουμε": 7447,
      "ίσεις": 7448,
      "τέχ": 7449,
      "εγω": 7450,
      "γική": 7451,
      "χάν": 7452,
      "ρείται": 7453,
      "κολλο": 7454,
      "χαρακτηριστικά": 7455,
      "οφ": 7456,
      "απευθύνω": 7457,
      "εχο": 7458,
      "θεσπίζ": 7459,
      "πυρηνική": 7460,
      "τάρ": 7461,
      "λεπτά": 7462,
      "ευθε": 7463,
      "προτίθεται": 7464,
      "έξω": 7465,
      "κρέα": 7466,
      "προστιθέ": 7467,
      "αποκτήσει": 7468,
      "οχημάτων": 7469,
      "έντονα": 7470,
      "περισσότερους": 7471,
      "απαλλαγή": 7472,
      "καινοτό": 7473,
      "ανταποκρίνεται": 7474,
      "πρώτες": 7475,
      "γεωργικής": 7476,
      "επαρκή": 7477,
      "συνειδητοποι": 7478,
      "πυρηνικών": 7479,
      "Ση": 7480,
      "Υπό": 7481,
      "Ρώ": 7482,
      "ισότι": 7483,
      "θεμελιώδεις": 7484,
      "ανακοίνω": 7485,
      "αγγλ": 7486,
      "Sc": 7487,
      "επίσημη": 7488,
      "ιστική": 7489,
      "νήθηκε": 7490,
      "άποψης": 7491,
      "ξετε": 7492,
      "κατάλληλο": 7493,
      "ελάχιστα": 7494,
      "Τράπεζας": 7495,
      "εγκρίνουμε": 7496,
      "κεκτη": 7497,
      "ενθάρ": 7498,
      "προτείνω": 7499,
      "προκαλούν": 7500,
      "αρνητικές": 7501,
      "ιτισ": 7502,
      "χρηματοπιστωτικών": 7503,
      "ηλικιω": 7504,
      "ευνοϊκ": 7505,
      "Ro": 7506,
      "pol": 7507,
      "προσέ": 7508,
      "νόμο": 7509,
      "δικτύων": 7510,
      "διατηρηθεί": 7511,
      "φάρμακα": 7512,
      "προο": 7513,
      "Χαιρετίζω": 7514,
      "κατορ": 7515,
      "χρησιμοποιηθούν": 7516,
      "βέ": 7517,
      "πόλεις": 7518,
      "ψηφίσει": 7519,
      "απάτης": 7520,
      "εκστρατεία": 7521,
      "ισμένη": 7522,
      "υψηλού": 7523,
      "τεχνικές": 7524,
      "ρυσ": 7525,
      "ρινής": 7526,
      "καθαρά": 7527,
      "ικώς": 7528,
      "προσωπική": 7529,
      "μιλήσω": 7530,
      "πέραν": 7531,
      "έκφρασης": 7532,
      "απογοη": 7533,
      "ενεργά": 7534,
      "προετοιμά": 7535,
      "Ελέγ": 7536,
      "τοντας": 7537,
      "bert": 7538,
      "Cor": 7539,
      "ρούσε": 7540,
      "θεωρούν": 7541,
      "έγκρισης": 7542,
      "Νίκαι": 7543,
      "ρέας": 7544,
      "όμενος": 7545,
      "Μακ": 7546,
      "επίθεση": 7547,
      "θεσπισ": 7548,
      "Τσεχ": 7549,
      "μακρά": 7550,
      "χρήσιμο": 7551,
      "her": 7552,
      "εξοικ": 7553,
      "εφαλ": 7554,
      "Κίνας": 7555,
      "εμένα": 7556,
      "ιδρυ": 7557,
      "προκύπτει": 7558,
      "κριτηρίων": 7559,
      "βλέπει": 7560,
      "δοκιμά": 7561,
      "οπότε": 7562,
      "ιστη": 7563,
      "σκοπός": 7564,
      "κοινοβούλια": 7565,
      "μυν": 7566,
      "λένε": 7567,
      "είπατε": 7568,
      "Συνέλευση": 7569,
      "Bo": 7570,
      "συζητήσεων": 7571,
      "χαιρετίζω": 7572,
      "εαυτό": 7573,
      "πεποί": 7574,
      "μιση": 7575,
      "1994": 7576,
      "Κού": 7577,
      "ομα": 7578,
      "Σύνταγμα": 7579,
      "φυλακ": 7580,
      "φαρμάκων": 7581,
      "εσαν": 7582,
      "εφημερί": 7583,
      "συγκεκριμένων": 7584,
      "Ανθρω": 7585,
      "ley": 7586,
      "ολοκληρωθεί": 7587,
      "περασμένη": 7588,
      "κλίμακα": 7589,
      "Συγ": 7590,
      "τάξης": 7591,
      "βελτίωσης": 7592,
      "Ολομέλεια": 7593,
      "AF": 7594,
      "Κανα": 7595,
      "εξά": 7596,
      "στέλ": 7597,
      "ρήτρα": 7598,
      "έπειτα": 7599,
      "Ασφαλώς": 7600,
      "ομοι": 7601,
      "λαός": 7602,
      "θυμάτων": 7603,
      "Όχι": 7604,
      "ηγέτες": 7605,
      "πολιτισμού": 7606,
      "κατάλληλα": 7607,
      "Μάρ": 7608,
      "ευγνώ": 7609,
      "πηγών": 7610,
      "θεραπ": 7611,
      "Gu": 7612,
      "επεξεργασία": 7613,
      "Πιστεύουμε": 7614,
      "τελικό": 7615,
      "γεωργικών": 7616,
      "Μεταφορών": 7617,
      "Ελεγκτικό": 7618,
      "όπλα": 7619,
      "πράσι": 7620,
      "εκτετα": 7621,
      "υπάμαι": 7622,
      "Col": 7623,
      "Εκτός": 7624,
      "αναλάβουν": 7625,
      "πολιτικού": 7626,
      "άλλουν": 7627,
      "λυθεί": 7628,
      "COM": 7629,
      "Θεμελιωδών": 7630,
      "πασχ": 7631,
      "μετανάστες": 7632,
      "συμμετάσχουν": 7633,
      "ροί": 7634,
      "μίσουμε": 7635,
      "πραγματοποιήθηκε": 7636,
      "Press": 7637,
      "εκατοντά": 7638,
      "θώντας": 7639,
      "οχήματα": 7640,
      "ελέγχων": 7641,
      "παρότι": 7642,
      "απόρρι": 7643,
      "τάση": 7644,
      "προκαλέσει": 7645,
      "έγκλημα": 7646,
      "προσπαθεί": 7647,
      "μασταν": 7648,
      "Ελέγχου": 7649,
      "Univers": 7650,
      "Ma": 7651,
      "ευτυ": 7652,
      "ld": 7653,
      "άραγε": 7654,
      "σκόπι": 7655,
      "αποφύγουμε": 7656,
      "Ελευθε": 7657,
      "ελάχιστο": 7658,
      "εύκολο": 7659,
      "ρώσει": 7660,
      "τρέχου": 7661,
      "Ιρλανδίας": 7662,
      "ένδυ": 7663,
      "εκπόνηση": 7664,
      "ιδιοκτησίας": 7665,
      "μηχανισμούς": 7666,
      "Εσωτερικών": 7667,
      "αδια": 7668,
      "Mart": 7669,
      "επικρατεί": 7670,
      "ώνας": 7671,
      "Δημό": 7672,
      "αισθά": 7673,
      "Σλοβακ": 7674,
      "Υπερψήφισα": 7675,
      "σύναψη": 7676,
      "καινοτομίας": 7677,
      "μόνων": 7678,
      "εξαιρέ": 7679,
      "σθεί": 7680,
      "υποβλή": 7681,
      "ark": 7682,
      "πλήρης": 7683,
      "κατανοη": 7684,
      "ύδατα": 7685,
      "ειπε": 7686,
      "φεραν": 7687,
      "γραφεί": 7688,
      "σύμβαση": 7689,
      "ψεων": 7690,
      "τησα": 7691,
      "περιτ": 7692,
      "μάτια": 7693,
      "γωγής": 7694,
      "παραγωγών": 7695,
      "κατασκευή": 7696,
      "υιοθέτηση": 7697,
      "Διότι": 7698,
      "χορήγησης": 7699,
      "μεριμ": 7700,
      "συνέ": 7701,
      "χυπρόθεσ": 7702,
      "δίδεται": 7703,
      "ξεχνάμε": 7704,
      "περιθώριο": 7705,
      "Αριστε": 7706,
      "επισιτισ": 7707,
      "πληροφόρηση": 7708,
      "καταστροφές": 7709,
      "απόκ": 7710,
      "σκευασ": 7711,
      "ριστούμε": 7712,
      "επιφέρει": 7713,
      "κυρώσεων": 7714,
      "κρέατος": 7715,
      "αδελ": 7716,
      "βάσεις": 7717,
      "ουσες": 7718,
      "είδα": 7719,
      "κειτο": 7720,
      "συγκρούσεις": 7721,
      "πρωτίστως": 7722,
      "μμουν": 7723,
      "form": 7724,
      "Στον": 7725,
      "ειδικών": 7726,
      "Λευκορωσία": 7727,
      "Τζ": 7728,
      "Χρει": 7729,
      "ήθελε": 7730,
      "πράξει": 7731,
      "βιω": 7732,
      "χρησιμοποιεί": 7733,
      "φορους": 7734,
      "χρονοδιάγραμμα": 7735,
      "υπονομεύ": 7736,
      "τρέχοντος": 7737,
      "νέργ": 7738,
      "επιστροφή": 7739,
      "λύσης": 7740,
      "προσπαθειών": 7741,
      "κάτο": 7742,
      "περιγράφ": 7743,
      "λογη": 7744,
      "στηρίζεται": 7745,
      "αλιευτικών": 7746,
      "κοινότητας": 7747,
      "τείνει": 7748,
      "περιλαμβάνεται": 7749,
      "περίθαλψη": 7750,
      "κονδυ": 7751,
      "αυξάνεται": 7752,
      "ιε": 7753,
      "αποτελεσ": 7754,
      "χρησιμοποιήσουμε": 7755,
      "επικοινωνίας": 7756,
      "απελευθέρωση": 7757,
      "απάντησή": 7758,
      "str": 7759,
      "ημερα": 7760,
      "έκφραση": 7761,
      "αφρικαν": 7762,
      "κλάδο": 7763,
      "δεδει": 7764,
      "Φιλελευθέρων": 7765,
      "έκαναν": 7766,
      "προέκ": 7767,
      "στολή": 7768,
      "πυλώνα": 7769,
      "απλό": 7770,
      "υποστηρίζουν": 7771,
      "δεδειγ": 7772,
      "δημοκρατικές": 7773,
      "προέδρου": 7774,
      "ΚΓΠ": 7775,
      "υν": 7776,
      "εθνο": 7777,
      "παγκόσμι": 7778,
      "περιφερειακές": 7779,
      "φευ": 7780,
      "αποτελεσμάτων": 7781,
      "τίθετα": 7782,
      "απλούστε": 7783,
      "Μεσο": 7784,
      "εγκλήματα": 7785,
      "επιμε": 7786,
      "διάφορους": 7787,
      "μηχανισμού": 7788,
      "θνη": 7789,
      "συγχρόνως": 7790,
      "Χριστιανο": 7791,
      "βασίζονται": 7792,
      "κώδικα": 7793,
      "λάβα": 7794,
      "νομής": 7795,
      "ρίζουν": 7796,
      "βρά": 7797,
      "χριστια": 7798,
      "μίως": 7799,
      "επιτρέψουμε": 7800,
      "Gre": 7801,
      "εύονται": 7802,
      "Ενέργ": 7803,
      "οντο": 7804,
      "πρόληψης": 7805,
      "φυσικού": 7806,
      "πρόσωπο": 7807,
      "τεράστιες": 7808,
      "ίδιας": 7809,
      "κλιματική": 7810,
      "αναπτυξιακή": 7811,
      "εκπροσω": 7812,
      "προώθησης": 7813,
      "ηλικίας": 7814,
      "μεγαλύτερης": 7815,
      "τερος": 7816,
      "έντονη": 7817,
      "προθεσ": 7818,
      "μονής": 7819,
      "λέγεται": 7820,
      "δοκιμα": 7821,
      "πεπεισμένος": 7822,
      "Στρασβούργο": 7823,
      "ευρεσιτεχνίας": 7824,
      "κανέναν": 7825,
      "Πακ": 7826,
      "οικογένεια": 7827,
      "δραστηριότητας": 7828,
      "περιφερειακής": 7829,
      "εξετάζει": 7830,
      "εξετάζουμε": 7831,
      "στενή": 7832,
      "μενοι": 7833,
      "eg": 7834,
      "λαμ": 7835,
      "περάσει": 7836,
      "άριθ": 7837,
      "μερί": 7838,
      "ακρί": 7839,
      "εμπορευ": 7840,
      "Αυστρία": 7841,
      "Διαμεσολαβητή": 7842,
      "ικανοποίησή": 7843,
      "εκθέσεων": 7844,
      "ανανεώσιμες": 7845,
      "ξεκινήσω": 7846,
      "υπερασπισ": 7847,
      "500": 7848,
      "συνιστούν": 7849,
      "ποινή": 7850,
      "ενδιαφέρ": 7851,
      "υπήρχαν": 7852,
      "παράνομη": 7853,
      "διαμόρφωση": 7854,
      "περιεχο": 7855,
      "δυνη": 7856,
      "σημαντικών": 7857,
      "επικεντρω": 7858,
      "κορυ": 7859,
      "θλι": 7860,
      "ρίστηκε": 7861,
      "μοναδική": 7862,
      "έπαι": 7863,
      "έγκαι": 7864,
      "Mor": 7865,
      "σκοπι": 7866,
      "προωθήσουμε": 7867,
      "αποτυχία": 7868,
      "χρημάτων": 7869,
      "αποκαλούμε": 7870,
      "εξεταστεί": 7871,
      "Προσω": 7872,
      "κανονισμών": 7873,
      "άτο": 7874,
      "ούμαστε": 7875,
      "απώλεια": 7876,
      "είπαν": 7877,
      "βασικών": 7878,
      "συναδέλφων": 7879,
      "κίνητρα": 7880,
      "παρακολουθεί": 7881,
      "επανειλημμένα": 7882,
      "ψήφ": 7883,
      "λέγοντας": 7884,
      "αποτελέσουν": 7885,
      "εργαλείο": 7886,
      "Αντίθετα": 7887,
      "εργαζόμαστε": 7888,
      "ακρίβ": 7889,
      "παγκοσμίως": 7890,
      "τιμής": 7891,
      "δίσει": 7892,
      "βραχυπρόθεσ": 7893,
      "σβ": 7894,
      "Σύμβασης": 7895,
      "πορτογαλ": 7896,
      "Eπιτροπή": 7897,
      "συγχαρη": 7898,
      "χρηματοπιστωτική": 7899,
      "θαλάσσ": 7900,
      "αναγνωρίζει": 7901,
      "οποιη": 7902,
      "διαβουλεύσεις": 7903,
      "αναπτυχθεί": 7904,
      "Θεος": 7905,
      "per": 7906,
      "εστ": 7907,
      "πτώ": 7908,
      "ρώντας": 7909,
      "υποδομών": 7910,
      "Οικονομικών": 7911,
      "διοίκηση": 7912,
      "άλλος": 7913,
      "λογίας": 7914,
      "έξο": 7915,
      "rom": 7916,
      "έβαλαν": 7917,
      "αναπη": 7918,
      "ακολού": 7919,
      "πρί": 7920,
      "εξέφρασε": 7921,
      "οικονομικού": 7922,
      "επιδιώκει": 7923,
      "απουσία": 7924,
      "νίας": 7925,
      "βάσης": 7926,
      "Ανατολικής": 7927,
      "πολύτι": 7928,
      "διαβούλευση": 7929,
      "παύ": 7930,
      "δείξουμε": 7931,
      "εξωτερικών": 7932,
      "καταλήξει": 7933,
      "τέλει": 7934,
      "γαλλική": 7935,
      "ΦΠΑ": 7936,
      "Αγ": 7937,
      "Βαρ": 7938,
      "διαβεβαιώσω": 7939,
      "Kοι": 7940,
      "κάρ": 7941,
      "Μεσ": 7942,
      "νήσει": 7943,
      "χορηγή": 7944,
      "λειτουργήσει": 7945,
      "άκουσα": 7946,
      "βαίνουν": 7947,
      "κοσι": 7948,
      "αντιμετωπίσουν": 7949,
      "ξεχωρισ": 7950,
      "αποδεκτή": 7951,
      "Βιομηχαν": 7952,
      "διαχω": 7953,
      "δημιουργούν": 7954,
      "μπουμ": 7955,
      "έρευνες": 7956,
      "τεχνολογιών": 7957,
      "τικο": 7958,
      "ταμείο": 7959,
      "ρόλου": 7960,
      "νομοθετικό": 7961,
      "περιβαλλοντικών": 7962,
      "απόψεων": 7963,
      "lin": 7964,
      "διεκ": 7965,
      "λωτών": 7966,
      "συμμετέχει": 7967,
      "επιτυχη": 7968,
      "υποψήφ": 7969,
      "σύλλη": 7970,
      "1990": 7971,
      "αρίας": 7972,
      "βληθούν": 7973,
      "ανέλαβε": 7974,
      "ώδεις": 7975,
      "Φα": 7976,
      "στρατηγικές": 7977,
      "πατρί": 7978,
      "Δικαιο": 7979,
      "κτες": 7980,
      "προέρχεται": 7981,
      "if": 7982,
      "αυτοκινητο": 7983,
      "επιτρέψουν": 7984,
      "Ecu": 7985,
      "αυτοκινήτων": 7986,
      "εκφράσει": 7987,
      "αναγκαι": 7988,
      "επεσήμανε": 7989,
      "συναπόφασης": 7990,
      "Πολλοί": 7991,
      "Νομισματικής": 7992,
      "ιος": 7993,
      "αποδεικνύει": 7994,
      "αναφερό": 7995,
      "μισε": 7996,
      "ευκαιριών": 7997,
      "δίκαιη": 7998,
      "ειλικρινά": 7999,
      "θάνατο": 8000,
      "OL": 8001,
      "γευμα": 8002,
      "αναγνωρίζ": 8003,
      "Κοινο": 8004,
      "ενθαρρυν": 8005,
      "χρε": 8006,
      "περίθαλψης": 8007,
      "μπι": 8008,
      "συγκρούσεων": 8009,
      "Or": 8010,
      "Ύπα": 8011,
      "τερό": 8012,
      "εξή": 8013,
      "εξουσίες": 8014,
      "σύγχρο": 8015,
      "κτι": 8016,
      "ενδιά": 8017,
      "μόνος": 8018,
      "επικεφαλ": 8019,
      "ικανότητας": 8020,
      "υιοθέ": 8021,
      "νικό": 8022,
      "Προστα": 8023,
      "οικογένειες": 8024,
      "διάρθρωση": 8025,
      "γκα": 8026,
      "isch": 8027,
      "ical": 8028,
      "μενος": 8029,
      "κατευθύν": 8030,
      "Βόρεια": 8031,
      "ιακών": 8032,
      "υποδομές": 8033,
      "νομισματική": 8034,
      "άλμπουμ": 8035,
      "εποικοδομητική": 8036,
      "DS": 8037,
      "ένδειξη": 8038,
      "πυρηνικής": 8039,
      "ite": 8040,
      "συμβάλουν": 8041,
      "γνωμοδότηση": 8042,
      "Λον": 8043,
      "μίες": 8044,
      "νησε": 8045,
      "κάλυψη": 8046,
      "λυπηρό": 8047,
      "διω": 8048,
      "γραφία": 8049,
      "τηρείται": 8050,
      "Λιβ": 8051,
      "τραγω": 8052,
      "ποικιλό": 8053,
      "δομές": 8054,
      "απαράδεκτη": 8055,
      "ερμηνεία": 8056,
      "sh": 8057,
      "ωσή": 8058,
      "καρκ": 8059,
      "δικαιού": 8060,
      "πλεονεκτήματα": 8061,
      "Έρευ": 8062,
      "έκτημα": 8063,
      "αποδειχθεί": 8064,
      "DA": 8065,
      "μερών": 8066,
      "σοκο": 8067,
      "inn": 8068,
      "ΕΚΤ": 8069,
      "Κροατία": 8070,
      "Πακιστάν": 8071,
      "χως": 8072,
      "γόν": 8073,
      "ελπιστώ": 8074,
      "βάθος": 8075,
      "βοηθήσουν": 8076,
      "πολυάριθ": 8077,
      "1992": 8078,
      "στοχεύει": 8079,
      "ina": 8080,
      "τμήματα": 8081,
      "όροι": 8082,
      "κεινται": 8083,
      "αερίων": 8084,
      "ουγγ": 8085,
      "Ασφαλείας": 8086,
      "εποπτεία": 8087,
      "Joh": 8088,
      "ind": 8089,
      "αξίας": 8090,
      "μέγεθ": 8091,
      "Aυ": 8092,
      "αιτήματα": 8093,
      "βελτιώσει": 8094,
      "ational": 8095,
      "προσκ": 8096,
      "ύνουν": 8097,
      "καλωσο": 8098,
      "νεκ": 8099,
      "αποσκοπο": 8100,
      "Τέ": 8101,
      "φές": 8102,
      "ακολουθήσει": 8103,
      "γείου": 8104,
      "συμβιβασμός": 8105,
      "χισε": 8106,
      "περιβαλλοντικά": 8107,
      "τοξ": 8108,
      "μειονεκ": 8109,
      "κόλπους": 8110,
      "εκτά": 8111,
      "καλεί": 8112,
      "στηρίξουμε": 8113,
      "λέμε": 8114,
      "θρησκ": 8115,
      "άζουμε": 8116,
      "ραί": 8117,
      "σχη": 8118,
      "πέμ": 8119,
      "μενες": 8120,
      "αντά": 8121,
      "ιστικό": 8122,
      "επιτραπεί": 8123,
      "ολί": 8124,
      "ανταγωνισμός": 8125,
      "κονδυλίων": 8126,
      "La": 8127,
      "σκάφη": 8128,
      "ενδο": 8129,
      "επιχειρήματα": 8130,
      "εμπορική": 8131,
      "Θεωρούμε": 8132,
      "Δημόσιας": 8133,
      "τεια": 8134,
      "τόπου": 8135,
      "El": 8136,
      "Τυ": 8137,
      "ενταξ": 8138,
      "Mus": 8139,
      "Εσ": 8140,
      "τελευταίων": 8141,
      "εφοδιασμού": 8142,
      "άδων": 8143,
      "ίδιους": 8144,
      "Χωρίς": 8145,
      "Ενέργειας": 8146,
      "συνομ": 8147,
      "περιβαλλοντικές": 8148,
      "θελεις": 8149,
      "CO2": 8150,
      "πραγματικές": 8151,
      "ash": 8152,
      "πρώτος": 8153,
      "αναπτυξιακής": 8154,
      "τρά": 8155,
      "συνάδελφός": 8156,
      "Παν": 8157,
      "έλαβαν": 8158,
      "λεκ": 8159,
      "τάξη": 8160,
      "ρωσε": 8161,
      "πλου": 8162,
      "iz": 8163,
      "ένο": 8164,
      "οικονομικούς": 8165,
      "κρίσεων": 8166,
      "αποφευχθεί": 8167,
      "περιεχομένου": 8168,
      "ίος": 8169,
      "οκτώ": 8170,
      "ζαν": 8171,
      "υσή": 8172,
      "δοξη": 8173,
      "τοπικών": 8174,
      "θαυμά": 8175,
      "μάται": 8176,
      "Συνεδ": 8177,
      "νομιμο": 8178,
      "μελλοντικά": 8179,
      "ομόφωνα": 8180,
      "Gr": 8181,
      "ολλαν": 8182,
      "κατορθώ": 8183,
      "πυρο": 8184,
      "πρωταρχ": 8185,
      "συζητηθεί": 8186,
      "όγκ": 8187,
      "Διαδίκτυο": 8188,
      "ορθώς": 8189,
      "γνωστο": 8190,
      "ισορροπημένη": 8191,
      "επιφυλάξεις": 8192,
      "θεωρήσεων": 8193,
      "συνηθ": 8194,
      "σοφ": 8195,
      "δειξαν": 8196,
      "εθνικ": 8197,
      "φύλων": 8198,
      "κεντρικό": 8199,
      "San": 8200,
      "ile": 8201,
      "εταίρων": 8202,
      "Χώρες": 8203,
      "ire": 8204,
      "νατε": 8205,
      "δύσκολ": 8206,
      "εγκαταστάσεις": 8207,
      "εύκολα": 8208,
      "37": 8209,
      "ενεργό": 8210,
      "επιθυμώ": 8211,
      "δίνεται": 8212,
      "φθησαν": 8213,
      "δημι": 8214,
      "σοσιαλισ": 8215,
      "καταπολεμή": 8216,
      "σύμφωνο": 8217,
      "Air": 8218,
      "ψευ": 8219,
      "πολιτισμό": 8220,
      "Συμμαχίας": 8221,
      "ξο": 8222,
      "διε": 8223,
      "γουσα": 8224,
      "δραστηριοποι": 8225,
      "τελείως": 8226,
      "Ιαπωνία": 8227,
      "προωθεί": 8228,
      "προαγωγή": 8229,
      "θερμοκη": 8230,
      "θήματα": 8231,
      "χωρη": 8232,
      "πρώτης": 8233,
      "σπισης": 8234,
      "ψι": 8235,
      "ρετε": 8236,
      "νές": 8237,
      "φορολό": 8238,
      "συνδιαλλαγής": 8239,
      "πληθω": 8240,
      "πίου": 8241,
      "επαγγελματική": 8242,
      "99": 8243,
      "κρατικές": 8244,
      "στηρίζει": 8245,
      "παλαιστινια": 8246,
      "μπορούσα": 8247,
      "ελευθερίες": 8248,
      "Σταθε": 8249,
      "Αλιείας": 8250,
      "αυτα": 8251,
      "αποτελούσε": 8252,
      "διαφορετικών": 8253,
      "συμμετάσχει": 8254,
      "επιτεύχθηκε": 8255,
      "κανόνα": 8256,
      "ix": 8257,
      "Μέλος": 8258,
      "επικεφαλής": 8259,
      "Βρα": 8260,
      "αναφορές": 8261,
      "λογικής": 8262,
      "βιε": 8263,
      "θεώρησης": 8264,
      "επισημαίνει": 8265,
      "βαθιά": 8266,
      "αγαθών": 8267,
      "ern": 8268,
      "Δικαιοσύνης": 8269,
      "σταδια": 8270,
      "κινδύνων": 8271,
      "ομοφων": 8272,
      "προτείνουμε": 8273,
      "εφαρμόσει": 8274,
      "παρέχεται": 8275,
      "θάρρος": 8276,
      "36": 8277,
      "aul": 8278,
      "Έχουν": 8279,
      "προτού": 8280,
      "μέγεθος": 8281,
      "ric": 8282,
      "κυρίου": 8283,
      "μεγάλος": 8284,
      "ate": 8285,
      "πυρ": 8286,
      "Μεσό": 8287,
      "εκτελεσ": 8288,
      "άκρως": 8289,
      "θερμοκηπίου": 8290,
      "ραδιο": 8291,
      "σιά": 8292,
      "πλημμ": 8293,
      "ερώτησή": 8294,
      "προκειμένη": 8295,
      "χρησιμοποίηση": 8296,
      "συνισ": 8297,
      "μανσης": 8298,
      "πιστεύουν": 8299,
      "Intern": 8300,
      "ach": 8301,
      "στικές": 8302,
      "ασφάλισης": 8303,
      "τριχ": 8304,
      "Λά": 8305,
      "εύσεων": 8306,
      "θμιση": 8307,
      "εναλλακτική": 8308,
      "ακτι": 8309,
      "διευκολύνει": 8310,
      "ρατε": 8311,
      "κάνετε": 8312,
      "αναγκαίες": 8313,
      "νομοθετικές": 8314,
      "δίωξη": 8315,
      "εξό": 8316,
      "κρατική": 8317,
      "αργά": 8318,
      "τουτο": 8319,
      "επαφή": 8320,
      "μηνύ": 8321,
      "αναγνωρίσουμε": 8322,
      "εργαστούμε": 8323,
      "εκλογική": 8324,
      "κτον": 8325,
      "νής": 8326,
      "δημοψήφισμα": 8327,
      "αναθεώρησης": 8328,
      "μετάβαση": 8329,
      "αμφιβολίες": 8330,
      "συμβολ": 8331,
      "αποφασιστικότητα": 8332,
      "συγχαίρω": 8333,
      "απόγευμα": 8334,
      "δυναμική": 8335,
      "αντιμετωπιστεί": 8336,
      "ανταποκριθεί": 8337,
      "επίγνωση": 8338,
      "Ευρωπαίους": 8339,
      "κάναμε": 8340,
      "φαντουργ": 8341,
      "εισθαι": 8342,
      "οποιοδήποτε": 8343,
      "Σχέ": 8344,
      "Ανθρωπίνων": 8345,
      "μεταναστευ": 8346,
      "νιο": 8347,
      "εδά": 8348,
      "αποφεύ": 8349,
      "βελτιώσουμε": 8350,
      "αντιμετώπισης": 8351,
      "αναπόφευ": 8352,
      "τρώ": 8353,
      "ουσίας": 8354,
      "συνείδη": 8355,
      "εισαγωγές": 8356,
      "κεφαλαίου": 8357,
      "ότο": 8358,
      "πνευμα": 8359,
      "Βρετανία": 8360,
      "ριας": 8361,
      "φέτος": 8362,
      "χάρα": 8363,
      "εκπρόσωποι": 8364,
      "κατανόηση": 8365,
      "IN": 8366,
      "εφαρμοστούν": 8367,
      "ιλίες": 8368,
      "κρύ": 8369,
      "θέτουμε": 8370,
      "τομέων": 8371,
      "έλλειψης": 8372,
      "εξουσίας": 8373,
      "one": 8374,
      "στηρίξει": 8375,
      "ασχολείται": 8376,
      "Υπ": 8377,
      "κοιτά": 8378,
      "Κοσσυφοπεδίου": 8379,
      "Αγγ": 8380,
      "πολιτιστική": 8381,
      "ποντας": 8382,
      "υπεύθυνη": 8383,
      "And": 8384,
      "αιτία": 8385,
      "συντομία": 8386,
      "δηλώνει": 8387,
      "ίδρυση": 8388,
      "πακέτο": 8389,
      "ελεύθερα": 8390,
      "Επει": 8391,
      "Μεσογείου": 8392,
      "Μου": 8393,
      "υιοθετήσει": 8394,
      "Παγκόσμιο": 8395,
      "παντα": 8396,
      "πρωτεύ": 8397,
      "επανέλ": 8398,
      "προκάλεσε": 8399,
      "διατίθενται": 8400,
      "αναλύ": 8401,
      "University": 8402,
      "λαούς": 8403,
      "κανένας": 8404,
      "συντονισμός": 8405,
      "Αποτελεί": 8406,
      "Όσο": 8407,
      "δημοσιονομικής": 8408,
      "προθέσεις": 8409,
      "πραγματο": 8410,
      "συνάδελφοί": 8411,
      "ήπει": 8412,
      "κοινά": 8413,
      "πάρει": 8414,
      "σεβασμός": 8415,
      "κυκλοφο": 8416,
      "ιδεολογ": 8417,
      "απαντήσει": 8418,
      "άχα": 8419,
      "μω": 8420,
      "λαμβαν": 8421,
      "συναλλαγές": 8422,
      "συνεισφορά": 8423,
      "δεκαετίες": 8424,
      "Χριστιανοδημοκράτες": 8425,
      "επιβεβαί": 8426,
      "δότηση": 8427,
      "δημοκρατικών": 8428,
      "δημοσιονομικό": 8429,
      "εγγυη": 8430,
      "επιδιώκ": 8431,
      "ρησαν": 8432,
      "επιλογής": 8433,
      "Μας": 8434,
      "Παλαιστ": 8435,
      "φασ": 8436,
      "κάνια": 8437,
      "επείγον": 8438,
      "γγέλ": 8439,
      "φάσμα": 8440,
      "χείς": 8441,
      "μεταχείρισης": 8442,
      "κατοίκους": 8443,
      "Συνεδρίου": 8444,
      "Λε": 8445,
      "γαγ": 8446,
      "προτεραιότητας": 8447,
      "οδηγιών": 8448,
      "διαδραματίζει": 8449,
      "στενό": 8450,
      "μηχανισμός": 8451,
      "itt": 8452,
      "έδρων": 8453,
      "δεχθεί": 8454,
      "Νοέμβριο": 8455,
      "κατάλληλες": 8456,
      "συμβάλλουν": 8457,
      "παρουσίαση": 8458,
      "μόρφωσης": 8459,
      "εξαφαν": 8460,
      "θελουσι": 8461,
      "εύεται": 8462,
      "κλιματικής": 8463,
      "ώτες": 8464,
      "προσφέρουμε": 8465,
      "Επιθυ": 8466,
      "νόμος": 8467,
      "προσπαθούμε": 8468,
      "παγκοσμιοποίησης": 8469,
      "ιατρ": 8470,
      "σος": 8471,
      "εναλλακτικές": 8472,
      "βασιλε": 8473,
      "Γεωργία": 8474,
      "Προσωπ": 8475,
      "βάτες": 8476,
      "προβλεπ": 8477,
      "ψηφίσω": 8478,
      "κλίμακας": 8479,
      "Βαλκάνια": 8480,
      "Σερβία": 8481,
      "αντιδρά": 8482,
      "παράγοντα": 8483,
      "Πέμπτη": 8484,
      "ευγνώμων": 8485,
      "Γου": 8486,
      "τοτήτων": 8487,
      "σύμβ": 8488,
      "σύνταξη": 8489,
      "πρόσφατες": 8490,
      "ζητημάτων": 8491,
      "στρατό": 8492,
      "Ed": 8493,
      "ck": 8494,
      "όρος": 8495,
      "γηθεί": 8496,
      "υδάτων": 8497,
      "ώδες": 8498,
      "res": 8499,
      "συμπεριληφθεί": 8500,
      "τοπικό": 8501,
      "ιό": 8502,
      "λιά": 8503,
      "ρίζω": 8504,
      "άνοντας": 8505,
      "μηνών": 8506,
      "Μάρτιο": 8507,
      "ζί": 8508,
      "συνόλου": 8509,
      "νωμένο": 8510,
      "στοιχ": 8511,
      "μοσπον": 8512,
      "συμπερί": 8513,
      "σημερινό": 8514,
      "πεύουν": 8515,
      "Po": 8516,
      "πρε": 8517,
      "πλοία": 8518,
      "Επικρο": 8519,
      "συμφωνήσουμε": 8520,
      "τύπω": 8521,
      "πρωτοβουλιών": 8522,
      "αυστηρά": 8523,
      "επείγουσα": 8524,
      "εφαρμόσουμε": 8525,
      "αιρέ": 8526,
      "ριστο": 8527,
      "στωση": 8528,
      "εγεί": 8529,
      "κοινοτικές": 8530,
      "κτί": 8531,
      "λογικές": 8532,
      "95": 8533,
      "τήματος": 8534,
      "ort": 8535,
      "παγκοσμιοποίηση": 8536,
      "Βίβλο": 8537,
      "μέριμ": 8538,
      "iss": 8539,
      "ειδικό": 8540,
      "προσαρμό": 8541,
      "ασθενείς": 8542,
      "con": 8543,
      "σθηκε": 8544,
      "ώνουμε": 8545,
      "υπόλοιπα": 8546,
      "μοναδικό": 8547,
      "Βέλ": 8548,
      "εισή": 8549,
      "υπάρχ": 8550,
      "θάλασσα": 8551,
      "γεγονότος": 8552,
      "τικοποίηση": 8553,
      "επρό": 8554,
      "ευχαρί": 8555,
      "Fran": 8556,
      "Gal": 8557,
      "Ακ": 8558,
      "συμφωνήσει": 8559,
      "διασφαλίσουν": 8560,
      "αυξήσει": 8561,
      "Ενωσης": 8562,
      "λονται": 8563,
      "αρχάς": 8564,
      "φανώς": 8565,
      "μορφία": 8566,
      "βλέπουν": 8567,
      "συνταξιοδο": 8568,
      "γέ": 8569,
      "βεβαιότητα": 8570,
      "Έρευνας": 8571,
      "fe": 8572,
      "στικό": 8573,
      "συμβουλ": 8574,
      "Κόμμα": 8575,
      "σχετίζεται": 8576,
      "γούστου": 8577,
      "παράγοντας": 8578,
      "δημιούργ": 8579,
      "ett": 8580,
      "υποχρεώσεων": 8581,
      "πρίσμα": 8582,
      "ιλι": 8583,
      "αποδοχή": 8584,
      "επρόκειτο": 8585,
      "Αναφέρομαι": 8586,
      "Γυ": 8587,
      "προμη": 8588,
      "κρατικών": 8589,
      "χρησι": 8590,
      "συνολικό": 8591,
      "σπίτι": 8592,
      "βράδυ": 8593,
      "ξέν": 8594,
      "μακρι": 8595,
      "αποσύ": 8596,
      "θηθεί": 8597,
      "βαθύ": 8598,
      "Θεου": 8599,
      "περιθώρια": 8600,
      "ors": 8601,
      "ρχία": 8602,
      "νομίσματος": 8603,
      "θεύ": 8604,
      "χρησιμοποιήσει": 8605,
      "αναφέρθηκαν": 8606,
      "μέθοδος": 8607,
      "ξεπερά": 8608,
      "Se": 8609,
      "διασφαλίζει": 8610,
      "επιθυμη": 8611,
      "περίοδος": 8612,
      "ετίας": 8613,
      "στικής": 8614,
      "αστριχ": 8615,
      "Αυγούστου": 8616,
      "διευθυν": 8617,
      "διεξαγ": 8618,
      "ελευθεριών": 8619,
      "τυχώς": 8620,
      "ανησυχεί": 8621,
      "φωτο": 8622,
      "εξεύρεση": 8623,
      "τραυ": 8624,
      "επικαλ": 8625,
      "αγροτικές": 8626,
      "Προς": 8627,
      "διοίκησης": 8628,
      "αεροπορικές": 8629,
      "εκατοντάδες": 8630,
      "ενδεδειγ": 8631,
      "ομοσπον": 8632,
      "Ελευθεριών": 8633,
      "iel": 8634,
      "διαφορών": 8635,
      "εξασφαλιστεί": 8636,
      "καλυ": 8637,
      "πληρώνει": 8638,
      "σώμα": 8639,
      "Ουγγαρία": 8640,
      "Har": 8641,
      "κάποιοι": 8642,
      "βιασ": 8643,
      "στής": 8644,
      "μίου": 8645,
      "ice": 8646,
      "άτομο": 8647,
      "Ανθρώ": 8648,
      "Κάτι": 8649,
      "εγκρίθηκαν": 8650,
      "υποστηρίξω": 8651,
      "ύψος": 8652,
      "εμπλεκ": 8653,
      "ορα": 8654,
      "κατάχρη": 8655,
      "υπού": 8656,
      "διάσκεψης": 8657,
      "σκοπεύει": 8658,
      "επιτροπών": 8659,
      "Υπηρεσία": 8660,
      "μετατρέ": 8661,
      "κείμενα": 8662,
      "επιστημονική": 8663,
      "επισήμανση": 8664,
      "κερδοσκοπ": 8665,
      "αλλού": 8666,
      "πληθυσμός": 8667,
      "Cl": 8668,
      "συναι": 8669,
      "Κατανα": 8670,
      "Οκτώ": 8671,
      "Βερο": 8672,
      "άμυνας": 8673,
      "τς": 8674,
      "Ιανουάριο": 8675,
      "αντιπολίτευσης": 8676,
      "orld": 8677,
      "ειται": 8678,
      "εξαιρετικό": 8679,
      "ειδικευ": 8680,
      "δίνουν": 8681,
      "τρόπου": 8682,
      "δημιουργήθηκε": 8683,
      "ιού": 8684,
      "άρια": 8685,
      "ζωοτροφ": 8686,
      "ωνίας": 8687,
      "χρησιμοποιώντας": 8688,
      "αναμένουμε": 8689,
      "Συγκ": 8690,
      "τυχόν": 8691,
      "μελέτες": 8692,
      "Μαυ": 8693,
      "Τί": 8694,
      "μενων": 8695,
      "περιφερειακών": 8696,
      "μακροπρόθεσμη": 8697,
      "πασχόλη": 8698,
      "γνωστή": 8699,
      "εσωτερικές": 8700,
      "υπογραφή": 8701,
      "έκπλη": 8702,
      "καλής": 8703,
      "πέρυσι": 8704,
      "Kοινοβ": 8705,
      "ενθαρρύνουμε": 8706,
      "μέρες": 8707,
      "καταγωγής": 8708,
      "amp": 8709,
      "δημογραφ": 8710,
      "οργάνωσης": 8711,
      "έξοδο": 8712,
      "ιχ": 8713,
      "ταχθούν": 8714,
      "Τότε": 8715,
      "Ιταλ": 8716,
      "άρχισε": 8717,
      "ρυξη": 8718,
      "δυνατοτήτων": 8719,
      "αντίληψη": 8720,
      "ιστορική": 8721,
      "ευρύτερη": 8722,
      "τηλεόρα": 8723,
      "Ούτε": 8724,
      "καθισ": 8725,
      "Αυτοί": 8726,
      "τραγού": 8727,
      "απόδοσης": 8728,
      "διευρύν": 8729,
      "απορρέ": 8730,
      "Στόχος": 8731,
      "34": 8732,
      "Her": 8733,
      "Ασία": 8734,
      "ρώνει": 8735,
      "δυναμικού": 8736,
      "γνωμοδότησης": 8737,
      "είες": 8738,
      "συνίσταται": 8739,
      "κοινότητες": 8740,
      "εξοικονό": 8741,
      "συνομιλίες": 8742,
      "αλλο": 8743,
      "αστριχτ": 8744,
      "AI": 8745,
      "περιβαλλοντικής": 8746,
      "Λιθου": 8747,
      "ana": 8748,
      "βαίως": 8749,
      "Λαμβ": 8750,
      "αναλάβουμε": 8751,
      "παράδοση": 8752,
      "John": 8753,
      "ριζόμαστε": 8754,
      "πολων": 8755,
      "στοϋ": 8756,
      "ελεύθερων": 8757,
      "ula": 8758,
      "προκύπτουν": 8759,
      "ποσοστώσεων": 8760,
      "ide": 8761,
      "χθησαν": 8762,
      "εμφάν": 8763,
      "κυκλοφό": 8764,
      "μερή": 8765,
      "διακυβερνη": 8766,
      "κοινοτικά": 8767,
      "κριβ": 8768,
      "προβλέπονται": 8769,
      "στοϋφαντουργ": 8770,
      "yn": 8771,
      "Ομοσπον": 8772,
      "ίσετε": 8773,
      "πλήρους": 8774,
      "παρέμβασης": 8775,
      "επηρεάζει": 8776,
      "καταστα": 8777,
      "παραγ": 8778,
      "ακρίβεια": 8779,
      "υποβολή": 8780,
      "επέτρε": 8781,
      "αυτοκίνητα": 8782,
      "ho": 8783,
      "ρικών": 8784,
      "αλυσί": 8785,
      "κομμουν": 8786,
      "εντούτοις": 8787,
      "σπουδαι": 8788,
      "Διακυβερνητική": 8789,
      "ατζέντα": 8790,
      "ναυπη": 8791,
      "άρτης": 8792,
      "συγκρο": 8793,
      "έδειξε": 8794,
      "αίσθηση": 8795,
      "ga": 8796,
      "Συνταγμα": 8797,
      "ure": 8798,
      "Κονγκ": 8799,
      "ευπρόσ": 8800,
      "σιων": 8801,
      "επιτευχθούν": 8802,
      "ενσωματω": 8803,
      "Con": 8804,
      "ij": 8805,
      "χρήστες": 8806,
      "κλωστοϋφαντουργ": 8807,
      "πτές": 8808,
      "ino": 8809,
      "υπόκεινται": 8810,
      "συνεχιζ": 8811,
      "εντυπ": 8812,
      "Γερμανίας": 8813,
      "κυριαρχία": 8814,
      "AT": 8815,
      "γεται": 8816,
      "οργανισμοί": 8817,
      "κερδ": 8818,
      "Παγκοσ": 8819,
      "Νέα": 8820,
      "προθεσμία": 8821,
      "Υπήρ": 8822,
      "bo": 8823,
      "τιά": 8824,
      "θεμέλ": 8825,
      "ελεγ": 8826,
      "πίεσης": 8827,
      "διεξάγεται": 8828,
      "πλειονότητα": 8829,
      "ψήφο": 8830,
      "συνάδελφό": 8831,
      "ανθρωπιστικής": 8832,
      "age": 8833,
      "ΕΟ": 8834,
      "γην": 8835,
      "σιαλ": 8836,
      "1993": 8837,
      "ελλείψεις": 8838,
      "Χα": 8839,
      "εξαγωγές": 8840,
      "καύσιμα": 8841,
      "λαιο": 8842,
      "δωρε": 8843,
      "Σεπτέ": 8844,
      "Κρά": 8845,
      "περιέχ": 8846,
      "συμπεριφοράς": 8847,
      "υγειονομικής": 8848,
      "den": 8849,
      "επόμενες": 8850,
      "ρήφαν": 8851,
      "λιών": 8852,
      "οδηγούν": 8853,
      "αναγκαιότητα": 8854,
      "75": 8855,
      "συγκρί": 8856,
      "αφήσουμε": 8857,
      "ειρηνευτική": 8858,
      "δημοκρατικής": 8859,
      "επιτυγχάν": 8860,
      "Μεσόγειο": 8861,
      "ήτοι": 8862,
      "βιοποικιλό": 8863,
      "Τούτο": 8864,
      "Απασχόλη": 8865,
      "Ιούλιο": 8866,
      "ουδε": 8867,
      "συντάκτης": 8868,
      "προθεσμ": 8869,
      "σχολεία": 8870,
      "Αντιθέτως": 8871,
      "ξέρω": 8872,
      "Προσωπικά": 8873,
      "κακ": 8874,
      "ξειδίου": 8875,
      "Αγο": 8876,
      "χώρηση": 8877,
      "περιορίζεται": 8878,
      "θεμελιώδες": 8879,
      "ubl": 8880,
      "συνεργά": 8881,
      "38": 8882,
      "λεπτό": 8883,
      "φραγ": 8884,
      "βρει": 8885,
      "δημιουργηθούν": 8886,
      "διεξο": 8887,
      "θεραπεία": 8888,
      "ώνω": 8889,
      "συμμερίζομαι": 8890,
      "Παράλληλα": 8891,
      "χρέους": 8892,
      "πόρ": 8893,
      "ρίσω": 8894,
      "νεζ": 8895,
      "Σκο": 8896,
      "επίκαι": 8897,
      "αλιευτικής": 8898,
      "γχΠ": 8899,
      "Τυνη": 8900,
      "ρείο": 8901,
      "διατηρήσει": 8902,
      "Προεδρεύοντα": 8903,
      "ΑΕγχΠ": 8904,
      "προορίζονται": 8905,
      "κατώ": 8906,
      "ενθ": 8907,
      "επικεί": 8908,
      "στήριξή": 8909,
      "αρκετό": 8910,
      "δον": 8911,
      "ρικά": 8912,
      "καμιά": 8913,
      "κομμάτων": 8914,
      "επιχείρημα": 8915,
      "κέντρα": 8916,
      "συγκεντρώ": 8917,
      "τιέ": 8918,
      "επένδυ": 8919,
      "εμπλέκ": 8920,
      "κόλου": 8921,
      "διακυβ": 8922,
      "συμμόρφωση": 8923,
      "δημοκρατικά": 8924,
      "αυστηρή": 8925,
      "Δικαιώματα": 8926,
      "Οκτώβ": 8927,
      "Τε": 8928,
      "άρων": 8929,
      "απογοή": 8930,
      "ασκούν": 8931,
      "επιβολής": 8932,
      "ηκε": 8933,
      "φέραμε": 8934,
      "Ελεγκτικού": 8935,
      "προθυ": 8936,
      "επίδραση": 8937,
      "δότησης": 8938,
      "ταχύτητα": 8939,
      "Σταθερότητας": 8940,
      "ντά": 8941,
      "μετε": 8942,
      "μείνει": 8943,
      "γενικού": 8944,
      "δρομολογ": 8945,
      "af": 8946,
      "αυτην": 8947,
      "γνωμόνων": 8948,
      "έγκειται": 8949,
      "άμεσο": 8950,
      "δραστή": 8951,
      "σκληρά": 8952,
      "IV": 8953,
      "Dav": 8954,
      "κατέθεσε": 8955,
      "Προϋπολογισμού": 8956,
      "Καταναλωτών": 8957,
      "ευπρόσδεκ": 8958,
      "προσεχή": 8959,
      "παράνομης": 8960,
      "καινού": 8961,
      "πέμπ": 8962,
      "φορολογούμε": 8963,
      "σφαί": 8964,
      "δικτατο": 8965,
      "έρθει": 8966,
      "καθά": 8967,
      "τελωνεια": 8968,
      "ισβήτητα": 8969,
      "δολά": 8970,
      "σέβεται": 8971,
      "προστιθέμενη": 8972,
      "ψυχ": 8973,
      "σημειώσει": 8974,
      "υποθέσεων": 8975,
      "μικρά": 8976,
      "αναπτύξουμε": 8977,
      "επίλυ": 8978,
      "πληρωμές": 8979,
      "λας": 8980,
      "ενιαίου": 8981,
      "οδηγήσουν": 8982,
      "κοινοβουλευτικής": 8983,
      "υπευ": 8984,
      "Εκφρά": 8985,
      "επιστήμιο": 8986,
      "Ποια": 8987,
      "ημων": 8988,
      "απόδειξη": 8989,
      "υποστηρι": 8990,
      "απογοητευ": 8991,
      "πεποίθηση": 8992,
      "CS": 8993,
      "φυσικών": 8994,
      "νισης": 8995,
      "Γάζ": 8996,
      "μειώσει": 8997,
      "αποκλεισμού": 8998,
      "εργαζομένους": 8999,
      "αυξανόμενη": 9000,
      "διευκόλυνση": 9001,
      "ειές": 9002,
      "απόβλη": 9003,
      "Ph": 9004,
      "Απαι": 9005,
      "ταύ": 9006,
      "θυμό": 9007,
      "ποσοστά": 9008,
      "Ενωση": 9009,
      "γμένες": 9010,
      "αναπτύξει": 9011,
      "ισορροπίας": 9012,
      "μημα": 9013,
      "υποβά": 9014,
      "αντιπροσωπείας": 9015,
      "σμό": 9016,
      "νέος": 9017,
      "προσωρινή": 9018,
      "φθούν": 9019,
      "ανέρχεται": 9020,
      "Προφανώς": 9021,
      "σσομαι": 9022,
      "σκευή": 9023,
      "na": 9024,
      "ντ": 9025,
      "φωνη": 9026,
      "ath": 9027,
      "Συνέλευσης": 9028,
      "δαπανη": 9029,
      "αμυν": 9030,
      "διατήρησης": 9031,
      "θέσουν": 9032,
      "τραγ": 9033,
      "αναπο": 9034,
      "ακρα": 9035,
      "παράνομ": 9036,
      "Μάαστριχτ": 9037,
      "συνεχή": 9038,
      "ment": 9039,
      "πτική": 9040,
      "σπάν": 9041,
      "ότου": 9042,
      "ρήσεις": 9043,
      "θεωρούνται": 9044,
      "διάταξης": 9045,
      "δηλώσει": 9046,
      "νόμους": 9047,
      "πρωτόκολλο": 9048,
      "Μολ": 9049,
      "ιστικές": 9050,
      "αλλαγών": 9051,
      "uss": 9052,
      "Συμφωνία": 9053,
      "κελών": 9054,
      "εσφαλ": 9055,
      "βέβαιο": 9056,
      "ott": 9057,
      "προσχώρησης": 9058,
      "ϊβ": 9059,
      "ευσε": 9060,
      "σύγχ": 9061,
      "μαζικής": 9062,
      "επιχειρησια": 9063,
      "καταβάλει": 9064,
      "ζητάμε": 9065,
      "are": 9066,
      "σελίδα": 9067,
      "εξαρτώνται": 9068,
      "ίση": 9069,
      "ανω": 9070,
      "αποτελεσματικότητας": 9071,
      "συνεδριάσεις": 9072,
      "Μεγά": 9073,
      "gr": 9074,
      "πιθανόν": 9075,
      "Δα": 9076,
      "περιεκ": 9077,
      "κινεζ": 9078,
      "Σεπτέμβριο": 9079,
      "διδ": 9080,
      "sp": 9081,
      "γν": 9082,
      "τηκαν": 9083,
      "γραφειοκρατία": 9084,
      "επιδοτήσεις": 9085,
      "υψηλά": 9086,
      "υποχρεωτική": 9087,
      "Βέλγιο": 9088,
      "Δρά": 9089,
      "ΝΕ": 9090,
      "εμε": 9091,
      "διασφάλι": 9092,
      "κάποτε": 9093,
      "κια": 9094,
      "περικοπές": 9095,
      "μνή": 9096,
      "λόγων": 9097,
      "αυξημένη": 9098,
      "εποπτείας": 9099,
      "ελήφθησαν": 9100,
      "επιβάτες": 9101,
      "κλπ": 9102,
      "Βαρκελών": 9103,
      "παρεμπο": 9104,
      "εφαρμόζουν": 9105,
      "δρόμων": 9106,
      "ικανοποιητική": 9107,
      "Θι": 9108,
      "πολεμ": 9109,
      "πράξεων": 9110,
      "ιακές": 9111,
      "ματός": 9112,
      "αποτέλεσε": 9113,
      "δημιουργήσουν": 9114,
      "ιδρύματα": 9115,
      "32": 9116,
      "ενία": 9117,
      "διαπραγμάτευση": 9118,
      "ling": 9119,
      "γονται": 9120,
      "λούμε": 9121,
      "Ελβε": 9122,
      "υπεύθυνοι": 9123,
      "υπόλοιπο": 9124,
      "πολύπλο": 9125,
      "ευελιξίας": 9126,
      "βιών": 9127,
      "ριες": 9128,
      "τωσης": 9129,
      "αλιείς": 9130,
      "βαρύ": 9131,
      "απασχολεί": 9132,
      "ΙΙ": 9133,
      "σιμότητας": 9134,
      "καλύπτουν": 9135,
      "φόρος": 9136,
      "αμφισβή": 9137,
      "ολοκληρώσω": 9138,
      "σύγκλισης": 9139,
      "δικός": 9140,
      "βοηθά": 9141,
      "ex": 9142,
      "δρόμος": 9143,
      "45": 9144,
      "ma": 9145,
      "σμένη": 9146,
      "επιβάλλει": 9147,
      "ακρο": 9148,
      "ικότητας": 9149,
      "χώρος": 9150,
      "ics": 9151,
      "σύνθε": 9152,
      "ασθενών": 9153,
      "Ζητώ": 9154,
      "che": 9155,
      "Ναι": 9156,
      "άντ": 9157,
      "τολής": 9158,
      "φαινο": 9159,
      "βιομηχανίες": 9160,
      "ski": 9161,
      "Οκτώβριο": 9162,
      "φρο": 9163,
      "μαύ": 9164,
      "εσωτερικών": 9165,
      "ανανεώσιμων": 9166,
      "ιδιαίτερο": 9167,
      "φθηκαν": 9168,
      "σήμανση": 9169,
      "σημερινής": 9170,
      "ΣΕΒ": 9171,
      "gen": 9172,
      "ειδή": 9173,
      "στατα": 9174,
      "ελκυ": 9175,
      "έλλειμμα": 9176,
      "καταστροφής": 9177,
      "τήτως": 9178,
      "συνομι": 9179,
      "εύχομαι": 9180,
      "έλθουν": 9181,
      "λάβετε": 9182,
      "χρονική": 9183,
      "πλειοψηφίας": 9184,
      "συγκρι": 9185,
      "Συντά": 9186,
      "αναφέρομαι": 9187,
      "World": 9188,
      "άρση": 9189,
      "ελεύθερο": 9190,
      "ξυ": 9191,
      "νομικού": 9192,
      "ρήσει": 9193,
      "ουλίων": 9194,
      "προσφορά": 9195,
      "αντισταθ": 9196,
      "Μαρό": 9197,
      "αναγνώρισης": 9198,
      "ργάνωση": 9199,
      "Εφόσον": 9200,
      "pro": 9201,
      "χης": 9202,
      "θημα": 9203,
      "αποκτήσουν": 9204,
      "αποθέματα": 9205,
      "πηγα": 9206,
      "Προσ": 9207,
      "Γαλλίας": 9208,
      "παραμείνουν": 9209,
      "φύλαξη": 9210,
      "ασφαλή": 9211,
      "προσπαθούν": 9212,
      "ακούσαμε": 9213,
      "μακριά": 9214,
      "ειπω": 9215,
      "αποθεμάτων": 9216,
      "στείλει": 9217,
      "HU": 9218,
      "καταδικασ": 9219,
      "ηλεκτρ": 9220,
      "συμμετείχαν": 9221,
      "ER": 9222,
      "συνοπτικά": 9223,
      "Ερω": 9224,
      "ζόταν": 9225,
      "τιστεί": 9226,
      "βάλλουμε": 9227,
      "Μολδα": 9228,
      "βυ": 9229,
      "ευχά": 9230,
      "ρησή": 9231,
      "εμπορία": 9232,
      "οφείλω": 9233,
      "εστε": 9234,
      "ουσας": 9235,
      "γραμμών": 9236,
      "γενικότερα": 9237,
      "Φινλανδία": 9238,
      "ct": 9239,
      "διοξειδίου": 9240,
      "ανθρώπινης": 9241,
      "be": 9242,
      "βρέ": 9243,
      "UN": 9244,
      "Ιη": 9245,
      "εδον": 9246,
      "ick": 9247,
      "τεχνικών": 9248,
      "σημείω": 9249,
      "σθεναρά": 9250,
      "Kύριε": 9251,
      "ηγεσία": 9252,
      "Tο": 9253,
      "τασε": 9254,
      "αλά": 9255,
      "υπερβολική": 9256,
      "πληρώνουν": 9257,
      "γοντας": 9258,
      "χρήσιμη": 9259,
      "πατρίδα": 9260,
      "αποσκοπούν": 9261,
      "λανθα": 9262,
      "καθημερινή": 9263,
      "συνθήκης": 9264,
      "εκτιμήσεις": 9265,
      "λίνο": 9266,
      "φύσης": 9267,
      "θέλετε": 9268,
      "οικοδομή": 9269,
      "καταρχήν": 9270,
      "μέλειας": 9271,
      "Man": 9272,
      "uk": 9273,
      "θείας": 9274,
      "φυγής": 9275,
      "μονούμε": 9276,
      "ελλην": 9277,
      "σύμ": 9278,
      "μηχανισμών": 9279,
      "ευρέως": 9280,
      "Επικροτώ": 9281,
      "ζωές": 9282,
      "τεχνικής": 9283,
      "συμβαίνουν": 9284,
      "ανταγωνιστική": 9285,
      "χρηματοπιστωτικής": 9286,
      "Pol": 9287,
      "αρχίζει": 9288,
      "αναγκών": 9289,
      "έκτακτης": 9290,
      "εισοδήματος": 9291,
      "προτέρων": 9292,
      "χρησιμοποιούμε": 9293,
      "φίμων": 9294,
      "όραμα": 9295,
      "Γραμμα": 9296,
      "άρθρα": 9297,
      "δεικνύεται": 9298,
      "ΟΝΕ": 9299,
      "γείτον": 9300,
      "Μάιο": 9301,
      "θό": 9302,
      "επιβάλλεται": 9303,
      "ανθρώπινο": 9304,
      "συγκέντρωση": 9305,
      "έγραψε": 9306,
      "κακή": 9307,
      "φόβο": 9308,
      "σκαφών": 9309,
      "ενθάρρυνση": 9310,
      "ξεκινήσουμε": 9311,
      "Τροφίμων": 9312,
      "καλέσω": 9313,
      "συνεχίζουν": 9314,
      "προτεραιοτήτων": 9315,
      "ποινής": 9316,
      "όρου": 9317,
      "πράξουμε": 9318,
      "αρνητική": 9319,
      "βρετανική": 9320,
      "γερμανική": 9321,
      "Περιφερειακής": 9322,
      "υψηλότερο": 9323,
      "υπουργός": 9324,
      "Βαλτικής": 9325,
      "πινγκ": 9326,
      "παρόμοιες": 9327,
      "Βεβαίως": 9328,
      "ακολουθήσουμε": 9329,
      "συστα": 9330,
      "διαφή": 9331,
      "πτή": 9332,
      "φυτο": 9333,
      "συμβιβασμού": 9334,
      "εμπειρογνωμόνων": 9335,
      "απόρριψη": 9336,
      "πολιτικός": 9337,
      "δείας": 9338,
      "απαιτήσεων": 9339,
      "ανεξάρτητη": 9340,
      "συμφι": 9341,
      "συζητήσει": 9342,
      "λάβαμε": 9343,
      "παρατη": 9344,
      "αντίθετη": 9345,
      "ιστών": 9346,
      "καθιστούν": 9347,
      "γνώσης": 9348,
      "υψηλή": 9349,
      "λασσας": 9350,
      "Ακόμα": 9351,
      "ενή": 9352,
      "έλευση": 9353,
      "αρχίσουμε": 9354,
      "αλιευτική": 9355,
      "υπογραμμίζει": 9356,
      "Προστασίας": 9357,
      "εξαίρετη": 9358,
      "διαβίωσης": 9359,
      "πλεονέκτημα": 9360,
      "τελευταίους": 9361,
      "επιχείρησης": 9362,
      "υγειονομική": 9363,
      "συμπεριλαμβανομένου": 9364,
      "οικογενεια": 9365,
      "Βαλκαν": 9366,
      "ελλείμ": 9367,
      "αρμόδιο": 9368,
      "ασκήσει": 9369,
      "Ολ": 9370,
      "ξεπ": 9371,
      "ποδο": 9372,
      "πραγματικής": 9373,
      "προϊόντος": 9374,
      "συλλογή": 9375,
      "AR": 9376,
      "έθε": 9377,
      "λύσεων": 9378,
      "προηγούμενες": 9379,
      "Ζι": 9380,
      "αρχι": 9381,
      "κρίσεις": 9382,
      "ica": 9383,
      "απειλεί": 9384,
      "σοβαρότητα": 9385,
      "do": 9386,
      "βλά": 9387,
      "εταίροι": 9388,
      "φτάσει": 9389,
      "διαφθοράς": 9390,
      "Ab": 9391,
      "εμπειρίες": 9392,
      "48": 9393,
      "αμ": 9394,
      "αποζημι": 9395,
      "ρύπανση": 9396,
      "αυστ": 9397,
      "θήκατε": 9398,
      "παράγουν": 9399,
      "κέρδη": 9400,
      "απόβλητα": 9401,
      "Κέν": 9402,
      "Προέδρων": 9403,
      "παρουσιάζουν": 9404,
      "ενδιαφέροντος": 9405,
      "τέτοιων": 9406,
      "ect": 9407,
      "ανάκαμψη": 9408,
      "Mon": 9409,
      "συνδεδ": 9410,
      "with": 9411,
      "κόλλου": 9412,
      "Rom": 9413,
      "δοι": 9414,
      "μίσει": 9415,
      "διεξάγονται": 9416,
      "παιχνιδι": 9417,
      "μπή": 9418,
      "αληθι": 9419,
      "παρέμβασή": 9420,
      "ποιεί": 9421,
      "ρητά": 9422,
      "πραγμάτων": 9423,
      "αδει": 9424,
      "προσαρμογής": 9425,
      "ψήφισε": 9426,
      "ασχοληθεί": 9427,
      "νομία": 9428,
      "μεγαλύτερος": 9429,
      "αποφασιστικό": 9430,
      "ξιότι": 9431,
      "Συμμε": 9432,
      "νονταν": 9433,
      "AIDS": 9434,
      "aw": 9435,
      "τημά": 9436,
      "Χρειάζεται": 9437,
      "Φρον": 9438,
      "βίου": 9439,
      "εγχώ": 9440,
      "ξής": 9441,
      "παραγωγοί": 9442,
      "Κοινωνικών": 9443,
      "βγ": 9444,
      "κριθ": 9445,
      "ώνες": 9446,
      "Πράσινη": 9447,
      "καθυστερήσεις": 9448,
      "εντυπω": 9449,
      "Ιερ": 9450,
      "συντρι": 9451,
      "φορτηγ": 9452,
      "επικροτώ": 9453,
      "τεχνικά": 9454,
      "ευτυχής": 9455,
      "ραηλι": 9456,
      "εγγράφων": 9457,
      "Δευ": 9458,
      "Τη": 9459,
      "περιέχουν": 9460,
      "δοί": 9461,
      "Παρόλα": 9462,
      "μπόρεσε": 9463,
      "Hist": 9464,
      "Δου": 9465,
      "δεοντο": 9466,
      "Μόλις": 9467,
      "κρυ": 9468,
      "σιμων": 9469,
      "νετε": 9470,
      "πωλή": 9471,
      "υποστηρικ": 9472,
      "ris": 9473,
      "αθέ": 9474,
      "τονίζει": 9475,
      "βαίνω": 9476,
      "επαγγελματικής": 9477,
      "αιτίες": 9478,
      "νομοθετικών": 9479,
      "Ρουμανίας": 9480,
      "We": 9481,
      "Λό": 9482,
      "εισό": 9483,
      "επικράτεια": 9484,
      "ιακής": 9485,
      "άζοντας": 9486,
      "Γραπτές": 9487,
      "Απασχόλησης": 9488,
      "Μεξ": 9489,
      "επανά": 9490,
      "εδραι": 9491,
      "δορυ": 9492,
      "συγκατα": 9493,
      "καπνού": 9494,
      "ME": 9495,
      "καθεν": 9496,
      "περισσότερων": 9497,
      "ενσωματώ": 9498,
      "λούνται": 9499,
      "αιτούν": 9500,
      "Ευρωπαϊκών": 9501,
[...]
